<unk>	0
<s>	0
</s>	0
▁the	-2.81432
▁.	-3.18136
▁of	-3.49737
▁in	-3.61536
s	-3.8007
▁a	-3.80145
▁and	-3.82117
▁is	-4.05876
▁to	-4.32099
ed	-4.34851
▁was	-4.75158
ing	-5.07479
▁as	-5.08764
▁for	-5.11853
▁on	-5.16266
▁by	-5.17639
▁it	-5.18639
▁s	-5.2628
▁with	-5.41677
▁from	-5.52002
▁he	-5.53062
▁an	-5.53149
▁that	-5.53977
.	-5.54337
▁are	-5.61618
▁or	-5.64172
▁be	-5.66129
▁at	-5.71513
y	-5.752
▁his	-5.83269
ly	-5.86193
e	-5.87326
d	-5.87895
▁which	-6.00996
▁	-6.05503
▁also	-6.12922
o	-6.16336
▁first	-6.1866
▁has	-6.19348
▁one	-6.22783
▁born	-6.23654
a	-6.29143
▁this	-6.3396
▁were	-6.34809
▁france	-6.35556
▁city	-6.3904
▁who	-6.40718
▁not	-6.49862
▁other	-6.50393
▁its	-6.50949
n	-6.51358
▁department	-6.5281
▁united	-6.53429
▁known	-6.55167
er	-6.56033
▁after	-6.56332
▁have	-6.5858
▁new	-6.58991
▁but	-6.62859
▁they	-6.63619
▁their	-6.64388
▁region	-6.64602
▁states	-6.66209
▁commune	-6.66731
▁most	-6.69274
▁world	-6.73232
▁had	-6.73308
▁two	-6.73595
▁used	-6.74667
es	-6.75245
▁can	-6.75282
▁football	-6.76464
th	-6.77751
▁may	-6.79205
▁american	-6.80693
▁when	-6.81353
▁her	-6.84143
▁found	-6.85932
▁called	-6.87442
▁she	-6.89044
▁north	-6.89922
▁all	-6.90102
▁de	-6.90581
▁been	-6.92501
▁into	-6.95766
t	-6.96221
▁name	-6.96843
▁many	-6.97821
▁people	-6.97847
▁some	-6.98813
▁about	-6.98831
▁there	-6.99352
▁more	-6.99739
▁part	-7.03076
▁time	-7.03435
▁made	-7.03667
▁state	-7.03751
us	-7.04253
▁national	-7.04329
▁o	-7.07096
▁d	-7.0782
▁dur	-7.08223
▁south	-7.10093
▁such	-7.11891
▁between	-7.12284
i	-7.14066
▁player	-7.15187
▁over	-7.15201
▁only	-7.15255
c	-7.15774
▁county	-7.16053
▁1	-7.16897
came	-7.18003
on	-7.20294
▁than	-7.22201
▁2	-7.22954
al	-7.24367
▁team	-7.24526
▁up	-7.24643
▁where	-7.27891
▁i	-7.28766
▁years	-7.28956
▁english	-7.31174
ie	-7.31734
▁year	-7.32381
▁three	-7.32407
▁war	-7.33955
▁located	-7.34373
▁second	-7.34746
▁district	-7.3525
▁music	-7.35495
▁town	-7.36145
▁area	-7.36691
▁former	-7.38729
▁series	-7.4093
l	-7.41126
m	-7.41412
▁band	-7.41846
▁west	-7.42696
▁3	-7.4274
▁m	-7.43133
▁no	-7.43351
▁university	-7.44068
▁through	-7.44411
▁later	-7.44604
▁under	-7.45668
r	-7.46121
▁march	-7.46551
▁la	-7.46597
▁september	-7.47498
▁january	-7.47716
▁14	-7.48166
▁c	-7.48844
▁al	-7.49562
▁german	-7.50604
▁game	-7.5064
▁british	-7.50778
▁work	-7.51339
▁album	-7.52073
▁well	-7.52497
▁released	-7.52606
▁river	-7.52791
▁october	-7.53087
▁august	-7.53334
▁east	-7.53609
▁often	-7.54195
▁number	-7.55776
▁these	-7.55856
▁u	-7.56087
▁4	-7.56344
▁july	-7.56373
▁so	-7.56449
▁since	-7.56529
▁league	-7.5697
▁june	-7.57147
▁film	-7.57214
▁f	-7.58311
▁while	-7.58492
▁group	-7.58823
▁april	-7.59021
▁named	-7.59181
▁england	-7.59309
▁system	-7.59316
▁out	-7.59634
▁b	-7.60072
▁e	-7.60872
▁both	-7.60929
▁use	-7.61176
▁december	-7.61783
▁including	-7.62035
▁family	-7.62676
▁november	-7.62871
▁until	-7.62916
▁show	-7.63031
▁like	-7.63638
▁northern	-7.63684
▁season	-7.6376
▁10	-7.6429
▁will	-7.64359
▁because	-7.65006
▁12	-7.65091
▁major	-7.65347
en	-7.65665
▁him	-7.65728
▁2007	-7.65918
▁being	-7.66291
▁before	-7.66471
▁played	-7.66857
▁king	-7.67249
▁february	-7.67518
▁general	-7.68153
▁5	-7.6825
▁capital	-7.68272
▁early	-7.68624
▁london	-7.69291
▁history	-7.69346
▁p	-7.69994
▁population	-7.70052
▁school	-7.70262
an	-7.7102
▁would	-7.71227
g	-7.71266
▁n	-7.71355
▁four	-7.71677
▁john	-7.72046
▁province	-7.72064
le	-7.72678
▁t	-7.72693
▁century	-7.72787
▁15	-7.72789
▁french	-7.73119
▁20	-7.73626
▁then	-7.73724
▁ndash	-7.74978
▁best	-7.75044
▁government	-7.75105
▁rock	-7.7604
▁6	-7.77416
▁very	-7.77454
▁small	-7.77962
▁now	-7.78151
▁form	-7.78353
▁place	-7.78866
▁2006	-7.78869
▁largest	-7.78992
▁several	-7.79053
ic	-7.79458
▁main	-7.79559
▁do	-7.80456
▁won	-7.80772
▁13	-7.80937
▁same	-7.81011
▁each	-7.81074
▁long	-7.81309
▁germany	-7.81404
▁2008	-7.82789
▁life	-7.82945
▁island	-7.83193
▁usually	-7.83275
▁around	-7.83452
▁president	-7.84666
▁however	-7.84688
▁them	-7.85374
▁7	-7.85617
▁international	-7.85718
gan	-7.86231
▁high	-7.86551
▁based	-7.86652
▁club	-7.86781
▁ii	-7.86818
▁km	-7.87481
▁japanese	-7.8753
▁language	-7.87943
ion	-7.88113
▁water	-7.88188
▁8	-7.88544
▁near	-7.89143
▁16	-7.89168
▁large	-7.89316
man	-7.9017
▁any	-7.90314
▁last	-7.92028
▁york	-7.92325
▁book	-7.92439
▁11	-7.92633
▁plays	-7.92975
▁great	-7.93108
▁different	-7.93162
▁day	-7.93198
in	-7.93638
k	-7.93883
▁television	-7.93957
▁see	-7.94122
▁died	-7.94217
▁central	-7.94495
▁common	-7.94535
▁k	-7.94539
ine	-7.95195
▁2005	-7.95235
▁species	-7.95252
▁home	-7.95398
▁l	-7.95743
▁if	-7.96065
st	-7.96698
▁record	-7.97018
▁end	-7.97358
▁southern	-7.98367
▁9	-7.98804
▁professional	-7.98865
▁sea	-7.9894
▁million	-7.99051
ies	-7.99096
▁kingdom	-7.99365
▁term	-7.99426
▁country	-8.00284
▁line	-8.00517
▁st	-8.00605
ity	-8.01001
▁song	-8.01659
▁western	-8.02586
▁death	-8.02981
▁against	-8.03158
▁center	-8.0324
though	-8.03324
h	-8.03484
▁g	-8.037
▁games	-8.03873
▁own	-8.04462
▁sometimes	-8.04502
▁h	-8.04533
▁j	-8.04591
▁un	-8.04902
▁18	-8.05119
▁written	-8.05528
▁17	-8.05647
▁currently	-8.06204
▁municipality	-8.06398
▁company	-8.06859
▁old	-8.06873
▁member	-8.07086
▁30	-8.07616
▁australia	-8.07699
▁19	-8.07957
▁union	-8.0874
▁party	-8.08806
▁2000	-8.08816
▁r	-8.09067
▁america	-8.09506
▁short	-8.10279
▁2009	-8.10426
▁famous	-8.10847
b	-8.11136
▁along	-8.11598
▁land	-8.12211
▁man	-8.12307
▁third	-8.12438
f	-8.12503
▁period	-8.12589
▁25	-8.12613
▁modern	-8.12794
▁black	-8.12798
▁back	-8.12823
▁single	-8.13178
▁include	-8.133
▁official	-8.13397
▁house	-8.13784
▁roman	-8.14238
▁live	-8.14576
▁red	-8.14629
▁following	-8.14774
um	-8.15008
▁church	-8.15182
▁japan	-8.15677
▁another	-8.16064
▁championship	-8.16329
▁2004	-8.16365
▁make	-8.16455
▁created	-8.16577
▁started	-8.16836
▁word	-8.16939
▁re	-8.17052
▁v	-8.17619
▁popular	-8.17873
▁pasdecalais	-8.18024
▁son	-8.18094
▁nord	-8.18334
▁important	-8.18439
▁father	-8.186
▁republic	-8.18969
▁tropical	-8.19024
▁power	-8.19332
▁italian	-8.19812
▁members	-8.19843
▁order	-8.20117
▁set	-8.20242
▁built	-8.20559
▁consider	-8.20716
▁age	-8.20725
▁24	-8.21039
▁eastern	-8.21367
▁did	-8.21609
▁published	-8.22025
se	-8.2216
▁hurricane	-8.2223
▁within	-8.22562
is	-8.22598
2	-8.23076
▁video	-8.23217
▁europe	-8.23868
▁per	-8.23873
▁go	-8.24335
pasdecalais	-8.24408
▁much	-8.24508
ism	-8.24512
able	-8.24921
▁white	-8.24955
z	-8.24978
▁given	-8.25018
▁young	-8.25097
▁college	-8.25904
▁five	-8.26086
▁park	-8.26284
▁formed	-8.26345
▁founded	-8.26385
u	-8.26544
▁public	-8.26688
x	-8.26708
▁list	-8.26792
▁aisne	-8.26854
▁21	-8.27055
▁still	-8.272
▁play	-8.28348
▁picard	-8.28371
▁children	-8.28584
▁left	-8.28634
▁northwest	-8.29013
▁example	-8.29289
▁23	-8.29503
▁pakistan	-8.29673
▁final	-8.29893
▁royal	-8.3015
▁station	-8.30155
▁what	-8.3017
▁22	-8.30363
dos	-8.30715
ia	-8.31034
▁original	-8.31212
▁storm	-8.31463
▁times	-8.31499
▁body	-8.31539
▁james	-8.31904
▁2001	-8.31965
▁said	-8.322
▁become	-8.32249
▁help	-8.32348
▁spanish	-8.32917
▁top	-8.33126
▁greek	-8.33196
▁held	-8.33216
▁air	-8.33707
p	-8.33889
▁countries	-8.34682
▁movie	-8.34785
▁william	-8.34983
▁even	-8.35514
▁you	-8.35556
▁title	-8.36202
▁local	-8.36413
▁calva	-8.36989
▁2003	-8.37366
ian	-8.37408
▁india	-8.37494
▁award	-8.37743
▁california	-8.38063
▁using	-8.38158
▁career	-8.38214
▁total	-8.38294
▁refer	-8.38351
▁late	-8.38777
▁appear	-8.38898
▁produced	-8.38944
▁council	-8.3904
▁head	-8.39855
▁current	-8.40153
▁referr	-8.40193
▁way	-8.4054
ormand	-8.41112
▁26	-8.41158
▁present	-8.41292
ley	-8.41367
▁bassen	-8.41536
▁european	-8.41733
▁could	-8.41945
▁according	-8.41982
▁free	-8.42243
▁hockey	-8.42408
▁empire	-8.42441
▁act	-8.42441
1	-8.43092
▁george	-8.4326
▁allow	-8.43307
▁switzerland	-8.43409
▁took	-8.43612
ers	-8.43777
▁point	-8.4384
▁law	-8.43874
▁moved	-8.43904
ra	-8.44224
▁2010	-8.44252
▁w	-8.44258
▁minister	-8.44421
▁27	-8.44659
▁just	-8.44939
▁2002	-8.44984
▁return	-8.45407
▁lake	-8.45734
▁human	-8.45831
▁28	-8.46337
▁means	-8.46717
▁cup	-8.46987
▁division	-8.47358
▁among	-8.47763
▁those	-8.47972
▁singer	-8.48104
▁person	-8.48505
▁footballer	-8.48652
▁similar	-8.48779
▁canton	-8.48845
▁earth	-8.49158
▁character	-8.49382
▁commonly	-8.49485
▁due	-8.49598
▁1980	-8.49974
▁today	-8.50065
▁grand	-8.50181
▁though	-8.50363
▁six	-8.50581
▁color	-8.50884
land	-8.50909
▁developed	-8.51007
▁support	-8.51054
▁version	-8.51213
▁battle	-8.51358
▁few	-8.51555
ne	-8.51726
▁car	-8.5173
▁originally	-8.51787
▁actor	-8.51829
ation	-8.51892
ton	-8.51912
▁29	-8.52216
▁down	-8.52653
▁canada	-8.5274
▁type	-8.52847
el	-8.52876
out	-8.52888
▁army	-8.53011
▁consist	-8.53184
▁mother	-8.53262
▁establish	-8.53298
▁together	-8.53349
▁star	-8.53524
▁1999	-8.53926
▁came	-8.54045
▁islands	-8.54581
▁light	-8.54732
▁australian	-8.55101
▁works	-8.55146
▁saint	-8.55188
▁side	-8.55435
▁charles	-8.55498
ce	-8.55621
or	-8.55953
▁san	-8.56237
▁men	-8.56354
▁match	-8.56819
▁china	-8.56998
▁emperor	-8.57058
▁art	-8.57134
▁role	-8.57607
▁playing	-8.57829
▁village	-8.57891
▁orchestra	-8.58418
▁political	-8.58423
▁wrestling	-8.58626
▁service	-8.58647
▁reach	-8.58867
▁off	-8.58958
est	-8.59023
re	-8.59491
▁italy	-8.59867
▁le	-8.60017
▁metal	-8.60189
▁x	-8.60303
▁coast	-8.60326
▁science	-8.60406
▁association	-8.60557
▁went	-8.60598
▁next	-8.60721
▁green	-8.60797
▁full	-8.61103
▁days	-8.61227
na	-8.61525
▁making	-8.61623
▁1990	-8.61898
▁christian	-8.61991
▁served	-8.62067
▁without	-8.62369
ar	-8.62425
▁force	-8.62507
▁middle	-8.62875
▁led	-8.62996
▁living	-8.63255
▁hall	-8.63458
▁meaning	-8.63591
▁wrote	-8.63639
▁event	-8.63906
▁god	-8.63909
▁us	-8.64278
▁1970	-8.64494
▁henry	-8.64702
▁perform	-8.65025
to	-8.65039
▁pass	-8.65121
▁open	-8.65652
▁parts	-8.65878
▁remain	-8.66
▁women	-8.66166
▁northwestern	-8.66255
▁again	-8.66339
▁robert	-8.66428
▁areas	-8.66538
▁queen	-8.66569
▁marri	-8.66656
▁good	-8.66853
▁computer	-8.67005
▁various	-8.67351
▁right	-8.67373
▁super	-8.67411
▁me	-8.67498
▁prime	-8.67564
▁paul	-8.67713
▁natural	-8.67727
▁ancient	-8.67777
▁pays	-8.67802
▁does	-8.67921
▁far	-8.68338
▁scotland	-8.68378
▁gironde	-8.68378
▁ice	-8.68536
▁how	-8.6879
▁africa	-8.68974
ta	-8.69002
▁receiv	-8.69021
▁latin	-8.69212
▁every	-8.69212
▁military	-8.69596
as	-8.70064
▁story	-8.70089
▁references	-8.70171
▁included	-8.70211
▁canadian	-8.7025
▁books	-8.70389
▁ireland	-8.70421
▁miles	-8.70423
▁particular	-8.70512
▁radio	-8.7073
▁events	-8.70744
te	-8.70789
▁co	-8.71023
v	-8.71143
ma	-8.71188
▁take	-8.7121
▁we	-8.7141
▁seat	-8.71528
▁get	-8.71589
▁big	-8.71781
▁control	-8.71899
▁railway	-8.72951
▁hav	-8.7314
▁ne	-8.73148
▁energy	-8.73367
▁road	-8.73426
▁study	-8.73479
▁defeat	-8.73591
▁seven	-8.73776
▁office	-8.74315
▁wife	-8.7451
▁non	-8.74577
▁space	-8.74817
▁brazilian	-8.74975
▁includes	-8.74989
▁david	-8.75266
ous	-8.75289
▁formula	-8.75554
▁special	-8.75619
▁result	-8.75767
▁network	-8.75892
▁food	-8.75899
▁little	-8.7593
co	-8.76017
▁aquita	-8.76208
▁1998	-8.76326
▁leader	-8.76354
▁ten	-8.76713
▁100	-8.76767
▁building	-8.76809
▁development	-8.76813
▁fire	-8.76915
▁iii	-8.76958
▁uk	-8.7704
▁director	-8.77162
ry	-8.77195
▁records	-8.77241
▁calendar	-8.77331
ge	-8.7793
▁los	-8.77974
▁rule	-8.7799
▁southwest	-8.78048
▁lead	-8.78135
▁census	-8.78232
▁class	-8.78343
▁month	-8.78429
ist	-8.78591
son	-8.78724
▁ocean	-8.78776
▁port	-8.78824
▁atlantic	-8.78858
▁paris	-8.79006
▁close	-8.79092
▁florida	-8.79136
▁wwe	-8.79333
▁less	-8.79457
w	-8.79827
▁31	-8.79852
la	-8.79863
▁square	-8.80099
▁post	-8.802
▁half	-8.80208
▁independent	-8.80244
▁bc	-8.80255
▁site	-8.8031
▁parliament	-8.80525
▁sun	-8.80605
▁border	-8.80752
▁novel	-8.8097
▁russian	-8.80988
3	-8.81105
▁night	-8.81123
▁either	-8.81563
da	-8.81638
▁indian	-8.81735
▁languages	-8.81793
▁chemical	-8.81818
▁opera	-8.81923
▁1994	-8.82029
▁1996	-8.82031
▁information	-8.82105
▁link	-8.82628
▁range	-8.8263
▁asia	-8.82805
▁1997	-8.82823
▁field	-8.83367
▁author	-8.83408
▁stadium	-8.83446
▁movement	-8.83486
▁sold	-8.83498
▁te	-8.83579
▁court	-8.83734
▁southwestern	-8.83953
▁summer	-8.8396
▁daughter	-8.84043
▁chinese	-8.84049
▁strong	-8.84084
▁plant	-8.84128
▁actress	-8.84201
▁street	-8.84315
▁di	-8.84319
▁blue	-8.8451
▁writer	-8.85223
▁1995	-8.8534
▁valley	-8.85417
▁run	-8.85767
▁prize	-8.85814
▁love	-8.86147
▁gold	-8.86191
▁caus	-8.86231
▁minor	-8.86412
▁once	-8.86424
▁loire	-8.86562
▁cities	-8.86979
▁tour	-8.86982
▁host	-8.87047
j	-8.87115
▁research	-8.87377
▁page	-8.87604
▁studio	-8.87657
▁seen	-8.87721
▁software	-8.87792
▁joined	-8.87826
▁across	-8.87836
▁organization	-8.88052
▁release	-8.88368
▁program	-8.8847
▁dutch	-8.88743
▁changed	-8.88858
▁scottish	-8.88952
▁discovered	-8.8899
▁richard	-8.88991
▁almost	-8.89129
▁songs	-8.89288
▁thought	-8.8937
▁my	-8.89541
▁key	-8.89683
▁date	-8.8974
▁taken	-8.89913
▁el	-8.90092
▁fourth	-8.90171
▁1960	-8.9019
▁berlin	-8.90248
▁brother	-8.9031
▁start	-8.90348
▁types	-8.90367
▁1992	-8.90625
▁race	-8.90683
▁composer	-8.90741
▁systems	-8.90795
▁bay	-8.90885
▁better	-8.91091
▁prince	-8.91174
▁position	-8.91259
▁must	-8.91299
▁spain	-8.9147
▁debut	-8.91527
▁separate	-8.91527
ur	-8.91533
▁sports	-8.91657
▁social	-8.91739
▁change	-8.91765
▁theory	-8.91824
▁catholic	-8.91873
▁simply	-8.91907
▁duke	-8.91912
ve	-8.92202
4	-8.92977
▁level	-8.92991
▁low	-8.93037
▁guitar	-8.93204
▁elect	-8.93255
▁turn	-8.93301
▁contain	-8.93449
▁successful	-8.93496
▁gave	-8.93552
▁surface	-8.9366
▁community	-8.93712
▁1979	-8.93725
▁forces	-8.9373
▁0	-8.93881
▁lost	-8.94006
▁win	-8.94153
▁highest	-8.94556
▁entertainment	-8.94604
▁never	-8.94622
▁real	-8.94649
▁1993	-8.94741
▁especial	-8.94772
il	-8.94791
ri	-8.95039
▁sir	-8.95198
▁typical	-8.9539
▁style	-8.95542
et	-8.95581
▁plants	-8.95859
▁design	-8.9628
▁unit	-8.96319
▁lower	-8.96457
▁airport	-8.96586
▁should	-8.96643
▁1981	-8.96654
▁mid	-8.96718
ment	-8.97128
▁federal	-8.97153
it	-8.97282
▁awards	-8.97299
▁soviet	-8.97444
ard	-8.97562
▁thomas	-8.97734
▁provide	-8.97824
▁size	-8.98039
▁y	-8.98204
▁disney	-8.98289
▁genus	-8.98383
▁politician	-8.98424
▁nhl	-8.98444
▁peter	-8.98456
▁michael	-8.98565
▁animals	-8.98931
▁child	-8.9898
▁process	-8.99117
▁traditional	-8.99221
▁related	-8.99253
de	-8.99488
▁instead	-8.99579
▁mostly	-8.9962
▁starting	-8.99634
▁da	-8.99926
▁louis	-8.99983
▁teams	-9.00051
▁champion	-9.00246
li	-9.00447
▁divid	-9.00486
▁put	-9.00696
▁uses	-9.00832
▁hard	-9.00877
▁wikipedia	-9.00898
▁trade	-9.00916
▁killed	-9.01154
▁stage	-9.01217
▁mountain	-9.01432
▁native	-9.01561
▁wales	-9.01576
▁hour	-9.01615
▁1974	-9.01745
▁represent	-9.01878
▁britain	-9.01973
▁!	-9.02398
▁data	-9.02431
ive	-9.0253
▁comes	-9.02601
▁describ	-9.02672
▁territory	-9.02699
▁lived	-9.02796
▁players	-9.02955
▁iowa	-9.03065
▁musical	-9.03103
▁above	-9.03185
▁replac	-9.03219
▁vi	-9.03285
▁working	-9.03288
▁standard	-9.03398
▁leave	-9.03659
no	-9.03767
▁1986	-9.03827
▁outside	-9.03959
▁away	-9.04065
ness	-9.04144
▁blood	-9.04294
▁1982	-9.04301
▁hit	-9.04312
▁least	-9.04603
▁pop	-9.04628
ch	-9.04821
▁enter	-9.04869
▁project	-9.04873
▁cross	-9.04896
▁1984	-9.04986
▁exist	-9.05242
▁come	-9.05266
▁opened	-9.05274
▁bar	-9.05413
▁50	-9.05536
▁features	-9.05542
▁himself	-9.05595
▁civil	-9.05665
▁source	-9.05693
age	-9.05699
▁length	-9.05811
▁beginning	-9.05842
▁approximately	-9.05999
▁oldest	-9.06033
▁tri	-9.06063
▁production	-9.06155
▁itself	-9.0626
▁attack	-9.06428
▁mexico	-9.06532
▁chief	-9.06602
ter	-9.06794
▁signed	-9.0683
▁dr	-9.06842
▁1989	-9.06877
▁words	-9.07017
▁ring	-9.07221
▁others	-9.07289
▁bridge	-9.07321
▁winter	-9.07561
▁further	-9.07612
▁flow	-9.07662
▁hand	-9.07672
▁society	-9.07745
▁windows	-9.07919
▁administrative	-9.08125
▁brand	-9.08166
▁describe	-9.08281
▁1991	-9.08336
▁virginia	-9.08836
▁1975	-9.0891
com	-9.09035
ro	-9.09173
▁cathedral	-9.09411
▁mark	-9.09456
▁mary	-9.09554
▁martin	-9.09688
▁track	-9.09763
▁artist	-9.0997
▁manager	-9.10072
▁nt	-9.1013
▁groups	-9.10255
ka	-9.10264
▁washington	-9.10389
▁pacific	-9.10458
▁academy	-9.1065
▁contains	-9.1073
▁moon	-9.10738
ina	-9.10794
ca	-9.10967
▁names	-9.11022
▁front	-9.11138
▁leading	-9.11249
▁model	-9.11257
▁sound	-9.11282
▁retired	-9.11307
▁1973	-9.11328
▁police	-9.11443
▁mi	-9.11648
▁bank	-9.11934
▁baseball	-9.11974
▁forms	-9.12188
▁entire	-9.12372
at	-9.124
▁1977	-9.12523
▁stone	-9.12552
▁culture	-9.12568
▁hill	-9.12572
▁available	-9.12647
▁van	-9.12694
ary	-9.12713
▁below	-9.12769
▁ground	-9.12819
▁base	-9.1299
▁got	-9.13002
▁episode	-9.13043
am	-9.1307
▁edward	-9.13152
▁1967	-9.13261
▁article	-9.13319
▁units	-9.13381
▁boy	-9.13431
▁upper	-9.13551
▁hot	-9.13553
▁eight	-9.14127
▁met	-9.14217
▁parent	-9.14236
▁designed	-9.14246
▁dynasty	-9.14261
▁tv	-9.14292
men	-9.14374
▁racing	-9.14386
▁find	-9.14387
▁certain	-9.1467
▁1976	-9.14686
▁ever	-9.14847
▁smaller	-9.15089
▁1969	-9.151
▁finish	-9.15112
▁1987	-9.15143
▁featur	-9.15204
▁characters	-9.15322
▁orbit	-9.15326
▁premier	-9.15477
▁larger	-9.15511
▁victoria	-9.15633
au	-9.15722
▁soon	-9.1574
▁brown	-9.1584
▁initial	-9.15914
▁1983	-9.15928
▁cell	-9.15934
▁angeles	-9.16174
ficially	-9.16338
▁bbc	-9.16421
▁connect	-9.16481
ville	-9.16713
▁services	-9.16884
▁continu	-9.16993
▁conductor	-9.17122
▁lord	-9.17159
▁distance	-9.17244
▁1972	-9.17249
▁introduced	-9.17264
go	-9.17336
▁success	-9.1735
▁pages	-9.17422
▁business	-9.17469
▁mass	-9.17555
▁texas	-9.17585
▁material	-9.17685
▁nintendo	-9.17725
▁feature	-9.17727
▁announced	-9.17806
▁von	-9.1782
▁mainly	-9.17872
less	-9.17928
▁1971	-9.17954
▁average	-9.1796
▁z	-9.18326
ally	-9.18372
▁wind	-9.18398
▁performance	-9.18424
▁physical	-9.18433
▁1985	-9.18453
▁hold	-9.18581
▁education	-9.18657
ther	-9.18753
▁thus	-9.19029
▁followed	-9.1904
▁governor	-9.19062
▁articles	-9.19145
▁writing	-9.1922
▁festival	-9.19362
▁magazine	-9.19434
▁wide	-9.19539
▁am	-9.19554
ized	-9.19588
▁chicago	-9.19647
▁russia	-9.19709
▁40	-9.19749
▁pope	-9.2014
▁count	-9.20357
▁websites	-9.20513
▁1978	-9.2053
▁woman	-9.20538
▁borough	-9.20615
▁produce	-9.20685
▁heat	-9.20887
▁1988	-9.21052
▁addition	-9.21081
▁nations	-9.21116
▁ball	-9.21138
▁producer	-9.21304
▁students	-9.21485
▁numbers	-9.21528
▁starr	-9.21549
▁peak	-9.21754
▁eventual	-9.21755
▁1945	-9.21844
▁che	-9.21846
▁dead	-9.22036
ent	-9.22085
▁travel	-9.22097
▁cells	-9.22251
ba	-9.22269
▁symbol	-9.22449
▁image	-9.22718
▁channel	-9.22803
▁films	-9.22984
▁shows	-9.22993
▁secretary	-9.23043
me	-9.23067
ner	-9.23173
▁voice	-9.23189
▁move	-9.23282
ol	-9.23294
▁metropolitan	-9.23315
▁female	-9.23326
▁heart	-9.23539
▁gas	-9.23559
▁create	-9.23594
▁electric	-9.23616
▁wood	-9.23627
▁compos	-9.23672
▁castle	-9.23733
▁mountains	-9.23741
▁animal	-9.23873
▁makes	-9.24055
▁mo	-9.24227
▁case	-9.24304
▁1950	-9.24311
▁increase	-9.24327
ga	-9.24354
▁annual	-9.24356
▁nobel	-9.24373
▁media	-9.24417
▁tree	-9.24516
ni	-9.24605
▁arts	-9.24609
im	-9.24698
▁code	-9.24718
▁widely	-9.2473
▁museum	-9.24788
up	-9.25235
▁brazil	-9.2524
▁actual	-9.25265
nd	-9.25355
▁nuclear	-9.25431
▁text	-9.25453
mo	-9.25484
▁albums	-9.25489
▁dark	-9.25508
vi	-9.25597
shire	-9.25603
▁principal	-9.25722
▁round	-9.25745
▁sent	-9.25891
▁nation	-9.26077
▁mean	-9.2617
▁train	-9.26207
▁money	-9.26272
▁cause	-9.26577
▁market	-9.26961
▁nine	-9.27158
▁ca	-9.27166
▁sister	-9.27254
▁directed	-9.27262
▁rights	-9.27288
▁bill	-9.27344
▁ko	-9.27396
▁ba	-9.27521
be	-9.27707
▁stars	-9.27768
▁edition	-9.28013
▁fiction	-9.28119
▁pressure	-9.28126
▁guitarist	-9.28242
▁rail	-9.28259
▁engine	-9.28274
▁your	-9.28305
▁greater	-9.28345
▁irish	-9.28355
▁rest	-9.28378
▁access	-9.28525
▁ask	-9.28564
rather	-9.28605
▁plan	-9.28691
time	-9.28702
▁arm	-9.28733
▁oil	-9.28763
day	-9.28767
▁structure	-9.28888
▁able	-9.28937
▁rose	-9.29005
▁peace	-9.29057
side	-9.2911
▁del	-9.29257
▁active	-9.2936
▁fish	-9.29391
▁religious	-9.29701
▁ch	-9.29806
▁associated	-9.29836
▁scale	-9.29849
▁studied	-9.29852
ki	-9.29872
tic	-9.29885
▁raw	-9.30087
▁alternative	-9.30091
▁joseph	-9.30177
▁romania	-9.30182
▁things	-9.30185
▁interest	-9.30293
▁belgian	-9.30331
▁flag	-9.30362
▁musician	-9.30425
▁toward	-9.30525
▁mon	-9.30628
▁mario	-9.30631
rd	-9.30892
▁districts	-9.30893
▁private	-9.31014
▁independence	-9.31057
▁health	-9.31068
▁1968	-9.3107
▁possible	-9.31134
▁simple	-9.31182
▁southeast	-9.31311
▁charge	-9.31347
ance	-9.31367
▁netherlands	-9.31436
▁heavy	-9.31554
▁added	-9.31589
▁bass	-9.31619
▁camp	-9.31658
by	-9.31924
▁view	-9.31954
▁jr	-9.32034
▁institute	-9.32186
▁oklahoma	-9.32187
▁bad	-9.32214
▁gain	-9.32268
▁golden	-9.32401
▁awarded	-9.32765
▁becomes	-9.33017
▁web	-9.33162
▁revolution	-9.33197
id	-9.33304
▁professor	-9.33335
▁website	-9.33417
ah	-9.33463
▁terms	-9.33572
▁takes	-9.33772
▁significant	-9.33833
▁higher	-9.33889
▁category	-9.33996
▁officer	-9.34044
▁continue	-9.34068
▁press	-9.34093
▁object	-9.343
ham	-9.3443
▁points	-9.34443
▁pro	-9.34472
▁amount	-9.3453
▁era	-9.34671
▁fall	-9.34694
▁cold	-9.34812
▁relative	-9.34866
▁zealand	-9.34996
▁lady	-9.3517
▁branch	-9.35224
▁label	-9.3532
▁give	-9.35383
▁letter	-9.35459
▁board	-9.35547
▁mount	-9.35597
▁du	-9.35629
▁honor	-9.35684
▁damage	-9.35815
▁na	-9.35889
▁treaty	-9.35996
▁li	-9.35999
▁call	-9.36061
os	-9.36189
▁ma	-9.36215
▁ka	-9.36481
arthe	-9.36566
▁pre	-9.36615
▁austria	-9.36629
▁election	-9.36673
▁coach	-9.36754
▁wall	-9.36807
field	-9.36817
▁operate	-9.36855
▁economic	-9.36959
▁fifth	-9.37036
▁worldwide	-9.37057
▁sub	-9.37087
▁beach	-9.37105
▁situated	-9.37113
▁wild	-9.37141
▁centre	-9.37233
▁brought	-9.37288
▁en	-9.37378
▁write	-9.37408
▁status	-9.37654
▁african	-9.37817
▁lines	-9.3784
▁primary	-9.37888
▁lies	-9.37907
▁urban	-9.37992
▁historical	-9.37992
▁...	-9.38297
▁internet	-9.38497
un	-9.38623
▁mal	-9.38667
▁multiple	-9.38681
mi	-9.38787
▁report	-9.38876
▁nature	-9.38991
▁peninsula	-9.39014
line	-9.39027
▁fame	-9.39039
▁doctor	-9.39089
▁1930	-9.39183
▁planet	-9.39231
▁extreme	-9.39363
▁tall	-9.39449
▁future	-9.39451
▁piano	-9.39546
▁jupiter	-9.39626
▁singles	-9.39627
6	-9.39674
▁individual	-9.39684
▁speed	-9.39935
▁1947	-9.39995
▁accept	-9.40062
▁always	-9.40067
▁personal	-9.40281
wood	-9.4043
▁becoming	-9.40512
▁korea	-9.4052
▁carolina	-9.40687
▁launch	-9.40862
ir	-9.40936
ish	-9.40981
▁true	-9.41021
▁regard	-9.41035
▁illinois	-9.4104
▁formerly	-9.41061
▁themselves	-9.41129
▁fox	-9.41164
▁rank	-9.41169
▁depression	-9.41309
▁operating	-9.41314
▁display	-9.4144
▁lee	-9.41451
▁block	-9.41487
▁mar	-9.41696
▁location	-9.41708
▁done	-9.4178
▁holy	-9.41904
▁usa	-9.42062
▁comedy	-9.42218
▁conference	-9.42305
ant	-9.42358
▁1963	-9.42405
▁nickname	-9.42566
▁section	-9.42607
▁birth	-9.42742
ling	-9.42747
▁34	-9.42817
▁regular	-9.42824
▁yellow	-9.42834
▁poland	-9.42941
▁paper	-9.43022
▁1964	-9.43037
▁rome	-9.43107
▁figure	-9.43124
▁industry	-9.432
▁attempt	-9.4325
▁poet	-9.43253
po	-9.43265
▁believe	-9.43266
head	-9.43384
▁studies	-9.43387
▁60	-9.43406
▁northeast	-9.43474
▁primari	-9.43479
▁iv	-9.43486
▁tell	-9.43487
▁news	-9.43575
▁changes	-9.43611
▁elements	-9.43616
▁mac	-9.43627
▁here	-9.43699
▁schools	-9.43718
▁speak	-9.43761
ium	-9.43788
▁classical	-9.43861
ha	-9.43909
▁austrian	-9.43998
ford	-9.44019
▁feet	-9.44047
▁jesus	-9.44114
▁1961	-9.44223
▁manchester	-9.44394
▁serve	-9.44404
cy	-9.44434
▁statistics	-9.44481
19	-9.44521
▁adopt	-9.44536
▁elizabeth	-9.44573
▁disease	-9.44656
▁towns	-9.44694
18	-9.4472
▁captain	-9.44943
▁ha	-9.45095
▁greatest	-9.45122
▁newspaper	-9.45128
▁male	-9.45273
▁saw	-9.45275
▁temperature	-9.45297
▁acid	-9.45636
▁past	-9.4565
▁complex	-9.45653
▁southeastern	-9.45688
▁prix	-9.45699
▁olympic	-9.45704
▁action	-9.45734
▁1965	-9.45804
bo	-9.45833
▁animated	-9.45885
▁recording	-9.46101
like	-9.46117
den	-9.46118
▁literature	-9.46529
ang	-9.46723
▁weather	-9.46725
▁harry	-9.46735
▁stan	-9.46762
pa	-9.46819
▁democratic	-9.46822
▁digital	-9.4702
▁chart	-9.47039
▁our	-9.47083
▁chess	-9.47168
▁ended	-9.47204
▁complete	-9.47223
▁user	-9.47223
▁commercial	-9.47239
▁inhabitants	-9.47284
5	-9.47318
▁friend	-9.47437
▁join	-9.47596
▁lo	-9.47693
▁buildings	-9.47723
▁attend	-9.47802
▁eat	-9.47838
▁defin	-9.47866
▁previously	-9.47933
▁behind	-9.47949
▁korean	-9.48318
▁recent	-9.48341
▁construction	-9.4836
▁1940	-9.48449
▁zone	-9.48472
▁swedish	-9.48715
▁alexander	-9.48719
▁bush	-9.48792
▁forest	-9.48966
▁cover	-9.49016
▁draft	-9.49018
▁winds	-9.49086
▁1949	-9.49122
▁winning	-9.49139
▁nearly	-9.4916
spite	-9.4921
▁legal	-9.49323
▁cultural	-9.49396
way	-9.4942
▁stories	-9.49494
▁egypt	-9.49558
ai	-9.49638
▁1948	-9.49699
▁soccer	-9.49875
▁iron	-9.49888
ul	-9.49958
ate	-9.50006
▁decided	-9.50065
▁beat	-9.50109
▁deep	-9.5011
▁idea	-9.50293
▁1920	-9.50388
ya	-9.50454
▁spoken	-9.50493
di	-9.50502
▁vote	-9.50503
der	-9.50635
▁santa	-9.50663
▁master	-9.5075
▁lot	-9.50754
▁competition	-9.50786
▁dance	-9.50871
▁cape	-9.5088
▁face	-9.5103
▁medical	-9.51051
▁probabl	-9.51101
▁earlier	-9.51251
▁scott	-9.51403
▁oxford	-9.5145
▁foreign	-9.51542
▁reported	-9.51726
▁variety	-9.5182
▁anti	-9.51922
▁bi	-9.52007
▁humans	-9.52104
▁longer	-9.52114
▁older	-9.52153
▁whole	-9.52153
▁develop	-9.52159
▁maria	-9.5219
▁cat	-9.52329
▁share	-9.52439
▁direct	-9.52526
▁1962	-9.52755
▁sport	-9.5279
▁succeed	-9.52835
▁campaign	-9.52836
▁palace	-9.52836
ko	-9.52931
▁ra	-9.52994
ak	-9.53061
▁previous	-9.53254
▁inside	-9.53285
▁subsequent	-9.53337
▁collection	-9.53447
▁notable	-9.53487
▁solar	-9.53517
▁degree	-9.53537
▁pi	-9.53627
▁1966	-9.5376
▁directly	-9.53827
▁saturn	-9.53842
▁direction	-9.53913
▁places	-9.53934
▁remains	-9.54036
▁drive	-9.54136
▁library	-9.54147
▁1946	-9.5416
▁spring	-9.54269
▁tom	-9.5433
▁route	-9.54362
lin	-9.54496
do	-9.54527
▁estimat	-9.54679
▁rain	-9.54702
▁polish	-9.54861
▁rich	-9.54898
▁might	-9.5498
▁whom	-9.55016
▁taking	-9.5512
▁jewish	-9.5518
ti	-9.55341
▁hundred	-9.55371
▁200	-9.55372
▁believ	-9.5552
▁friends	-9.55522
▁inter	-9.55577
▁online	-9.55638
em	-9.5586
▁grant	-9.55883
▁influence	-9.55977
▁biggest	-9.55989
▁basketball	-9.55989
▁discovery	-9.56005
▁salt	-9.56019
▁equal	-9.56046
gen	-9.56082
▁lives	-9.56127
▁organ	-9.56283
▁appointed	-9.56389
▁kind	-9.56398
▁lu	-9.56419
▁wrestler	-9.56421
▁silver	-9.56422
▁ho	-9.56455
▁der	-9.56482
▁ship	-9.56494
▁shape	-9.56581
▁armenian	-9.56586
▁die	-9.5659
▁medal	-9.56697
▁except	-9.56781
▁function	-9.56814
▁bell	-9.5682
▁br	-9.56917
▁reign	-9.56918
hi	-9.56985
ung	-9.57078
▁renam	-9.5708
▁founder	-9.57154
▁persian	-9.57184
▁command	-9.57188
que	-9.572
▁security	-9.57255
idae	-9.57325
▁climate	-9.57342
▁symphony	-9.57447
▁mayor	-9.5746
▁completed	-9.57534
▁medicine	-9.57559
▁limited	-9.57622
▁break	-9.5766
▁vocals	-9.57739
▁quickly	-9.57767
▁week	-9.58025
▁origin	-9.58029
▁express	-9.58233
ke	-9.58363
▁1939	-9.58527
▁fair	-9.58648
▁transport	-9.58801
▁talk	-9.58868
▁georgia	-9.58911
▁grew	-9.59048
▁1959	-9.59056
▁method	-9.59242
▁fictional	-9.59243
▁sex	-9.59269
io	-9.5927
▁via	-9.59294
▁scientific	-9.59466
▁cal	-9.59548
▁foundation	-9.59569
▁copies	-9.59695
▁distribution	-9.59705
▁try	-9.59726
▁jersey	-9.59781
▁cast	-9.59814
▁seasons	-9.59853
▁thousand	-9.59888
▁counties	-9.59941
▁wear	-9.59963
▁combin	-9.6007
▁garden	-9.60266
▁architecture	-9.60429
▁ran	-9.60434
▁running	-9.60444
▁1952	-9.60445
▁recently	-9.60533
▁say	-9.60534
▁1957	-9.60548
▁stay	-9.60585
▁victor	-9.60604
▁element	-9.60609
▁drama	-9.60822
8	-9.60948
▁technology	-9.61078
▁need	-9.61182
▁brothers	-9.61244
ot	-9.61347
▁horse	-9.61398
▁35	-9.61443
▁subject	-9.61459
▁appearance	-9.6146
▁look	-9.61495
▁sweden	-9.61519
▁recognized	-9.61589
▁kentucky	-9.61623
▁ta	-9.61795
▁ago	-9.61873
▁olympics	-9.61938
▁reference	-9.61941
▁smith	-9.62013
▁secret	-9.62024
gi	-9.62086
berg	-9.6215
▁christ	-9.62356
▁rules	-9.62411
▁deriv	-9.62551
▁engineering	-9.62584
nes	-9.62698
les	-9.62699
▁khan	-9.62769
▁problems	-9.62825
▁enough	-9.62834
▁read	-9.62975
▁driver	-9.63055
▁stop	-9.63118
▁moving	-9.6318
ten	-9.63263
▁rough	-9.63282
▁sand	-9.63305
▁mr	-9.6332
▁cyclone	-9.63391
▁effect	-9.63717
▁cancer	-9.63726
▁cm	-9.63777
▁dog	-9.6396
▁constitution	-9.64099
▁et	-9.64173
▁machine	-9.64182
▁stock	-9.64248
▁commission	-9.64249
ey	-9.64301
za	-9.64326
ier	-9.64332
▁gulf	-9.644
▁80	-9.64406
▁pan	-9.64409
▁double	-9.64445
based	-9.64456
▁credit	-9.64522
▁basic	-9.64529
▁solo	-9.64663
ov	-9.64728
▁labor	-9.64755
▁destroyed	-9.64766
▁arthur	-9.64974
▁bird	-9.64976
▁wanted	-9.64978
▁ar	-9.65002
ph	-9.65019
▁corporation	-9.652
▁begins	-9.65234
▁1953	-9.65324
ful	-9.65435
▁ben	-9.65465
▁value	-9.65593
▁earn	-9.65673
▁princess	-9.65844
▁melbourne	-9.65868
▁regional	-9.65982
▁ohio	-9.65983
▁painter	-9.66052
▁microsoft	-9.66096
9	-9.66119
lo	-9.66153
▁core	-9.66183
▁difficult	-9.6621
▁underground	-9.66217
▁1956	-9.6623
▁jack	-9.6626
▁learn	-9.66278
▁congress	-9.66402
▁numero	-9.66443
▁deal	-9.66545
▁90	-9.66548
▁1958	-9.66689
▁examples	-9.66705
▁appears	-9.66823
▁su	-9.66921
▁depend	-9.66937
▁highway	-9.66945
▁albert	-9.66978
▁scene	-9.67003
▁girl	-9.67016
▁test	-9.67065
▁chris	-9.67066
▁concert	-9.67112
▁linux	-9.67147
▁spent	-9.67253
▁involved	-9.67258
▁additional	-9.67383
▁pictures	-9.67486
ola	-9.675
▁industrial	-9.67583
▁reason	-9.67689
▁already	-9.67826
▁executive	-9.67943
ty	-9.67953
▁1944	-9.67964
▁edge	-9.67965
▁split	-9.68057
ac	-9.6807
ad	-9.6817
▁ontario	-9.68176
▁isbn	-9.68187
▁1954	-9.68198
▁focus	-9.68244
▁eye	-9.68273
▁ard	-9.68289
▁1955	-9.68314
▁giant	-9.68334
▁trains	-9.68491
▁opening	-9.68507
▁mythology	-9.68529
▁height	-9.68557
▁environment	-9.68617
born	-9.68648
▁etc	-9.68741
▁boston	-9.68767
▁frank	-9.68822
▁users	-9.6893
ler	-9.68933
▁mosque	-9.69002
▁marriage	-9.69146
▁ex	-9.69155
▁note	-9.69197
▁table	-9.69299
▁device	-9.69386
▁fa	-9.69462
▁defense	-9.69468
▁flight	-9.69486
ea	-9.69668
bi	-9.69761
▁vienna	-9.69823
well	-9.69891
▁clear	-9.69949
▁contest	-9.70057
▁administration	-9.70062
▁prior	-9.70231
▁committee	-9.703
▁practice	-9.70307
▁fruit	-9.70598
▁rise	-9.70607
▁unlike	-9.70699
▁portuguese	-9.70777
▁nazi	-9.70955
▁relationship	-9.71076
▁francisco	-9.7115
▁print	-9.71213
▁broadcast	-9.71259
he	-9.71361
▁fact	-9.71361
▁highly	-9.71503
▁sign	-9.71506
▁religion	-9.71568
▁adult	-9.71578
▁artists	-9.71647
▁movies	-9.71816
▁commonwealth	-9.71862
▁flower	-9.71871
▁circuit	-9.71944
▁ain	-9.71988
▁philosophy	-9.72226
▁provid	-9.72233
▁borders	-9.72307
▁evidence	-9.72347
▁fort	-9.72461
▁maintain	-9.72474
▁theater	-9.72539
▁physics	-9.72591
▁remov	-9.72721
ek	-9.72794
▁kilometre	-9.72841
▁products	-9.72855
▁husband	-9.73065
▁troops	-9.731
▁imperial	-9.73179
▁wave	-9.7337
▁room	-9.73423
mer	-9.73428
▁winner	-9.7346
10	-9.73476
▁andrew	-9.73529
▁diameter	-9.73573
▁creation	-9.736
▁specific	-9.736
▁nearby	-9.7363
▁says	-9.73661
▁runs	-9.73758
▁si	-9.73914
ja	-9.73919
▁columbia	-9.74001
▁sources	-9.74016
▁asteroid	-9.74071
▁meeting	-9.74082
▁too	-9.74122
▁1900	-9.74144
▁cases	-9.74176
▁dpartement	-9.7419
17	-9.74204
va	-9.7423
▁billion	-9.74249
▁birds	-9.74316
▁32	-9.74376
▁contract	-9.74429
▁1942	-9.74466
▁piece	-9.74492
▁bring	-9.74579
▁sydney	-9.74688
▁weeks	-9.74702
▁trees	-9.74748
▁growth	-9.74807
▁institution	-9.74896
▁blues	-9.75006
▁iran	-9.75103
▁therefore	-9.75187
▁stations	-9.75271
town	-9.75321
▁70	-9.75411
▁expand	-9.75439
▁whe	-9.75445
▁justice	-9.75459
▁settlement	-9.75475
▁pennsylvania	-9.75564
▁concern	-9.75564
▁sixth	-9.75586
▁regions	-9.75677
▁spread	-9.7569
▁mouth	-9.75741
▁muslim	-9.75858
▁youth	-9.75905
▁cut	-9.75965
▁bible	-9.75972
▁ph	-9.7599
ts	-9.76016
ru	-9.76082
▁centuries	-9.76198
▁mc	-9.76218
ade	-9.76221
▁challenge	-9.76547
▁mm	-9.76554
▁sam	-9.76588
▁1918	-9.76617
▁jean	-9.7667
▁universe	-9.76708
▁responsib	-9.76925
▁min	-9.76926
ho	-9.76952
▁philosopher	-9.76956
▁tower	-9.76988
▁construct	-9.77031
ron	-9.7704
▁45	-9.7711
▁suggest	-9.77154
▁card	-9.7716
▁hair	-9.77195
▁triple	-9.77202
▁compar	-9.77206
▁1936	-9.77235
▁versions	-9.77252
▁gives	-9.77274
▁skin	-9.77351
▁1941	-9.77353
▁federation	-9.7747
▁applied	-9.77498
▁earl	-9.77524
▁content	-9.77588
▁orange	-9.77605
▁student	-9.77682
▁dam	-9.77777
▁told	-9.77782
azur	-9.7786
▁lincoln	-9.77981
▁earliest	-9.77982
ite	-9.78106
▁mathematics	-9.78239
▁authority	-9.78325
▁product	-9.78352
▁something	-9.7838
▁exchange	-9.78412
▁wars	-9.78514
▁prison	-9.786
▁flat	-9.78602
▁training	-9.78639
▁tim	-9.78656
▁declared	-9.78723
▁dry	-9.78767
▁job	-9.78793
▁normal	-9.78805
▁sa	-9.78833
▁milk	-9.78926
▁overall	-9.78941
▁ray	-9.78996
▁grow	-9.79064
▁electronic	-9.79077
▁bear	-9.79085
▁cambridge	-9.79148
▁hospital	-9.79193
q	-9.79249
uk	-9.79346
▁watch	-9.79405
sh	-9.79462
▁companies	-9.79538
▁par	-9.79663
▁letters	-9.79731
nt	-9.79907
▁anne	-9.79921
▁course	-9.79931
▁hills	-9.80297
▁organiz	-9.80336
▁1933	-9.8034
▁jackson	-9.80358
▁volume	-9.80371
▁roles	-9.80401
▁license	-9.80411
▁os	-9.80492
lamic	-9.80527
▁going	-9.80576
pe	-9.80622
▁buri	-9.80794
▁500	-9.80861
wa	-9.80895
▁conditions	-9.80955
▁stephen	-9.81105
▁provencealpesc	-9.81121
▁indiana	-9.81165
▁belgium	-9.81254
▁sense	-9.81279
▁rcb	-9.81293
the	-9.81369
▁czech	-9.81394
▁compete	-9.81396
▁household	-9.81452
▁objects	-9.81485
▁1943	-9.81543
▁crown	-9.81635
▁massachusetts	-9.81787
▁michigan	-9.8179
▁chi	-9.81809
▁sky	-9.81848
▁journal	-9.81983
▁nor	-9.82193
▁brief	-9.82196
▁instrument	-9.82221
▁carbon	-9.82237
▁ti	-9.82239
▁rivers	-9.82353
▁1937	-9.82482
▁normally	-9.82486
most	-9.82584
▁multi	-9.82668
▁daniel	-9.82692
▁behavior	-9.82728
▁punjab	-9.82729
▁mississippi	-9.83002
▁wellknown	-9.83005
▁evolution	-9.83135
▁cost	-9.83231
▁policy	-9.83254
▁israel	-9.83313
▁1951	-9.83433
▁walt	-9.83437
▁classic	-9.83463
▁speech	-9.83542
▁swiss	-9.83552
ster	-9.83556
▁snow	-9.83617
▁materials	-9.83621
mar	-9.83659
▁punk	-9.83717
▁keep	-9.83768
▁tradition	-9.83839
ver	-9.83851
giving	-9.83887
zi	-9.83927
▁denmark	-9.83953
▁longest	-9.83963
▁programs	-9.83988
▁compound	-9.84051
▁alphabet	-9.84082
▁instruction	-9.84093
▁concept	-9.84152
▁conservative	-9.84229
▁jos	-9.84252
▁belong	-9.84407
rsb	-9.84434
▁kelly	-9.84477
▁turkey	-9.84502
▁arms	-9.8452
▁forced	-9.84601
▁medieval	-9.84637
▁navy	-9.84663
▁rate	-9.84738
▁matter	-9.84738
▁tag	-9.84775
▁aircraft	-9.84781
▁operation	-9.84794
▁churches	-9.84888
▁dvd	-9.84911
▁think	-9.84932
leaving	-9.85033
▁tu	-9.85036
▁pronounced	-9.85077
▁nfl	-9.85079
▁vice	-9.85161
ization	-9.85175
▁jazz	-9.8519
▁col	-9.85298
▁kill	-9.85319
▁theatre	-9.85335
▁ways	-9.85359
▁assembly	-9.85388
▁ni	-9.85474
▁powerful	-9.855
▁bowl	-9.85853
▁lsb	-9.85889
▁temple	-9.85895
ig	-9.85904
▁serving	-9.85945
▁prevent	-9.85987
▁covered	-9.86085
▁conducted	-9.8617
▁box	-9.86197
▁know	-9.86202
▁julian	-9.86291
▁twelve	-9.86302
▁originat	-9.86331
ix	-9.86355
▁document	-9.86379
▁po	-9.86395
ich	-9.86572
▁stand	-9.86607
▁1938	-9.86616
▁purpose	-9.86643
▁1000	-9.86652
▁mph	-9.867
op	-9.86702
▁im	-9.86702
▁links	-9.8684
▁frederick	-9.86868
▁required	-9.86899
▁fantasy	-9.87021
ci	-9.87022
▁motor	-9.87061
▁saxony	-9.87077
▁closed	-9.87088
▁circle	-9.87097
▁bands	-9.87146
▁raised	-9.87151
cha	-9.87151
▁sexual	-9.87278
▁songwriter	-9.87291
ated	-9.87366
▁mont	-9.87399
▁dan	-9.87469
▁cook	-9.87514
▁marie	-9.87538
▁string	-9.87615
▁historic	-9.8763
▁sequel	-9.87757
▁drink	-9.87761
sch	-9.87789
▁kong	-9.87825
▁warm	-9.87833
▁management	-9.87858
▁instruments	-9.87864
per	-9.87951
▁literal	-9.87956
▁parallel	-9.87976
▁rural	-9.87999
▁surrounding	-9.88084
▁want	-9.8812
▁cars	-9.88128
▁abbey	-9.8814
▁dna	-9.88158
▁levels	-9.882
▁build	-9.88221
▁bond	-9.88257
▁activity	-9.88285
▁quit	-9.88323
▁fight	-9.88347
▁spell	-9.88379
▁receive	-9.88502
▁ja	-9.88518
▁search	-9.88518
ze	-9.88571
bury	-9.88595
pi	-9.8861
▁families	-9.8867
▁soul	-9.88689
▁weight	-9.88729
▁marine	-9.88745
▁definition	-9.8878
▁account	-9.89003
▁minutes	-9.89136
▁ge	-9.89208
▁alabama	-9.89286
▁universal	-9.89286
▁municipalities	-9.89289
▁kashmir	-9.89307
▁invent	-9.89396
▁shot	-9.89434
ology	-9.89635
▁claim	-9.89654
▁lack	-9.89662
▁islam	-9.89747
▁frequently	-9.89819
▁des	-9.89842
▁bull	-9.89859
▁mixed	-9.89887
▁formation	-9.89924
▁1934	-9.90031
▁prominent	-9.90037
▁goals	-9.9006
▁colors	-9.90087
▁apple	-9.90091
▁singapore	-9.90108
▁agreement	-9.90115
12	-9.90127
▁teacher	-9.90173
ius	-9.90177
▁controll	-9.90194
▁goal	-9.90228
ical	-9.90266
▁moscow	-9.90446
▁bo	-9.90485
▁sunday	-9.90497
▁1929	-9.90622
▁outer	-9.9069
▁1919	-9.90714
▁greece	-9.90738
▁territories	-9.90738
▁toronto	-9.90738
▁motion	-9.90757
ger	-9.90768
▁formal	-9.90797
ik	-9.90797
▁hart	-9.9083
▁se	-9.90832
tended	-9.90837
ber	-9.90876
▁latter	-9.90887
▁historian	-9.90894
du	-9.90901
wise	-9.90926
▁angel	-9.90965
▁completely	-9.91032
▁daily	-9.91073
▁distinct	-9.91275
▁picture	-9.91312
▁1932	-9.91345
▁mu	-9.91354
▁pieces	-9.91459
▁tribe	-9.91484
▁mission	-9.91502
▁steve	-9.91565
▁strength	-9.91579
▁protestant	-9.91629
▁ce	-9.91636
ff	-9.91702
▁dictionary	-9.91773
▁freedom	-9.91778
▁trophy	-9.91783
ana	-9.91868
▁offer	-9.91991
▁largely	-9.92003
ini	-9.92213
▁poor	-9.92247
kept	-9.92344
▁agency	-9.9251
car	-9.92656
▁problem	-9.92669
▁arab	-9.92711
water	-9.92712
▁pe	-9.92714
▁bus	-9.92732
▁spot	-9.92842
▁needed	-9.92856
▁generation	-9.9288
and	-9.92918
▁acting	-9.92923
▁influenced	-9.92927
▁51	-9.92927
▁cents	-9.92933
▁alaska	-9.92957
▁junior	-9.93107
▁alone	-9.93182
ez	-9.93222
ino	-9.93249
▁global	-9.9327
▁escape	-9.93346
ata	-9.93379
▁provinces	-9.93379
▁morning	-9.93409
▁sugar	-9.93413
▁covers	-9.9347
▁secondary	-9.93564
▁twice	-9.93566
▁ability	-9.93576
▁bishop	-9.93585
▁genre	-9.93593
▁convert	-9.93602
▁technical	-9.93714
▁matches	-9.93735
mann	-9.93749
▁meet	-9.9377
▁carl	-9.93806
▁soldiers	-9.9383
▁seventh	-9.93937
▁hungary	-9.94013
▁belt	-9.94086
▁minnesota	-9.94161
▁opposite	-9.94167
▁ya	-9.94253
▁permanent	-9.9432
▁novels	-9.94386
▁pok	-9.94391
▁density	-9.94488
▁il	-9.9454
▁laws	-9.94585
▁francis	-9.94606
▁closely	-9.94608
▁episodes	-9.94628
▁staff	-9.94677
era	-9.94701
tial	-9.94753
cb	-9.94758
▁landfall	-9.94775
▁turkish	-9.94783
▁require	-9.94803
▁les	-9.94845
▁experience	-9.94895
▁vend	-9.94916
▁headquarters	-9.94918
▁bureau	-9.94936
▁tournament	-9.94983
▁chosen	-9.94995
▁occasional	-9.95039
▁portion	-9.95041
▁economy	-9.95074
▁gr	-9.95084
▁titles	-9.95102
▁format	-9.95176
che	-9.9518
▁entry	-9.95249
▁arabic	-9.9528
▁fighting	-9.9528
▁vol	-9.95283
▁jane	-9.95296
15	-9.95298
aceae	-9.95334
▁ep	-9.95391
▁orthodox	-9.95532
▁biography	-9.95534
▁chain	-9.9555
▁philip	-9.95566
ker	-9.95604
▁ve	-9.95614
▁activities	-9.95687
▁liquid	-9.95687
ps	-9.957
▁don	-9.95813
▁pay	-9.95897
▁traditionally	-9.95985
sur	-9.96096
ach	-9.96097
▁houses	-9.96143
▁arrest	-9.9615
▁combination	-9.96177
▁1912	-9.96181
▁gar	-9.96193
▁classified	-9.96199
▁kmh	-9.96207
▁glass	-9.96239
▁proposed	-9.96243
▁fund	-9.96257
▁powers	-9.96295
▁claimed	-9.96309
▁gray	-9.96448
▁folk	-9.96532
ial	-9.96605
▁classification	-9.96618
▁sleep	-9.96637
ought	-9.96638
▁aube	-9.96706
▁earthquake	-9.96716
▁store	-9.9675
▁results	-9.96761
▁reveal	-9.96769
▁paint	-9.96782
▁northcentral	-9.96788
▁comic	-9.96838
▁effects	-9.96914
▁aired	-9.96916
gregorian	-9.97027
▁fc	-9.97066
▁kansas	-9.9708
▁internal	-9.97147
▁soft	-9.97155
ington	-9.9724
▁64	-9.97283
7	-9.97306
▁dates	-9.97313
▁armenia	-9.97386
▁fashion	-9.974
▁notes	-9.97417
▁satellite	-9.97513
▁approach	-9.97633
▁tehsil	-9.97834
ji	-9.97851
16	-9.97883
aught	-9.97909
▁script	-9.97943
▁reading	-9.97961
▁es	-9.97982
▁potential	-9.9802
▁1935	-9.98056
▁1901	-9.98105
0000	-9.98135
ura	-9.98164
▁selected	-9.98207
▁applications	-9.9828
▁pen	-9.9834
▁sal	-9.98351
▁33	-9.9851
▁partement	-9.9851
ada	-9.98615
▁virgin	-9.98632
▁growing	-9.98651
▁atomic	-9.98707
▁chang	-9.98721
▁pp	-9.98729
▁impact	-9.9881
▁floor	-9.98828
▁zoo	-9.98866
▁fields	-9.98893
▁tea	-9.98999
▁ku	-9.99003
net	-9.99015
▁steel	-9.99117
▁console	-9.99127
▁images	-9.99128
▁tokyo	-9.99128
▁max	-9.99144
14	-9.9916
▁gun	-9.99215
▁ideas	-9.99253
▁reserve	-9.99277
▁solid	-9.99278
▁cd	-9.99301
▁herita	-9.99302
▁attacks	-9.99333
▁eyes	-9.99457
▁suburb	-9.9956
▁bottom	-9.99616
▁occupie	-9.99635
▁visit	-9.99646
ney	-9.9965
▁mind	-9.99811
▁1924	-9.99821
▁necessar	-9.99926
▁candidate	-9.9993
▁defender	-9.9998
▁file	-10.0001
▁robinson	-10.0009
▁asian	-10.0019
▁metres	-10.0024
▁?	-10.0025
▁speaker	-10.003
▁conduct	-10.0034
▁colony	-10.0034
han	-10.0039
▁supreme	-10.0041
▁munich	-10.0041
▁con	-10.0044
▁cycle	-10.0044
▁fr	-10.0046
▁pin	-10.0053
▁inspir	-10.0056
▁angle	-10.0059
▁wine	-10.0065
her	-10.0068
▁girls	-10.0078
▁yet	-10.0082
▁external	-10.0089
▁contact	-10.0089
▁midfielder	-10.009
▁baby	-10.0091
▁occur	-10.0093
▁socialist	-10.0094
haps	-10.0096
▁financial	-10.0106
jo	-10.0106
fi	-10.0111
▁hamilton	-10.0122
▁christmas	-10.0122
▁stopp	-10.0123
▁jim	-10.0138
▁argentina	-10.0138
▁ministry	-10.0142
▁jan	-10.0154
▁ross	-10.0156
▁address	-10.0158
▁slightly	-10.016
▁merg	-10.0164
▁fully	-10.0165
▁pc	-10.0166
ship	-10.0166
▁communist	-10.0171
▁boys	-10.0171
▁milan	-10.0172
burg	-10.0174
▁someone	-10.0179
▁ban	-10.0188
▁eggs	-10.019
▁platform	-10.0193
▁loss	-10.0206
▁question	-10.0211
ell	-10.0213
▁memorial	-10.022
▁memory	-10.022
▁taylor	-10.022
▁fine	-10.0222
▁ft	-10.0225
▁audience	-10.0236
don	-10.0251
▁dominican	-10.0254
▁rare	-10.0264
▁target	-10.0269
sen	-10.0273
▁christoph	-10.0286
▁drummer	-10.0286
▁1925	-10.0289
▁farm	-10.0294
▁sentence	-10.0295
▁lyrics	-10.0302
ut	-10.0304
▁bodies	-10.0304
▁2011	-10.0308
ities	-10.0311
▁johann	-10.0317
▁portugal	-10.0319
▁effort	-10.0319
▁interstate	-10.0319
▁causes	-10.0319
▁extend	-10.0324
▁foot	-10.0327
▁smackdown	-10.0335
▁convention	-10.0336
▁broad	-10.0336
▁ford	-10.0339
▁jump	-10.0341
stone	-10.035
▁caribbean	-10.0352
▁narrow	-10.0352
▁falls	-10.0362
▁fat	-10.0365
▁self	-10.0365
▁burn	-10.0367
▁billboard	-10.0369
▁property	-10.0369
▁ships	-10.0379
▁editor	-10.038
▁th	-10.0381
▁tennis	-10.0386
▁engineer	-10.0387
▁translat	-10.0389
▁path	-10.0396
▁walter	-10.0396
▁substance	-10.0402
▁senior	-10.0402
▁universities	-10.0403
▁1927	-10.0404
▁1910	-10.0406
▁commander	-10.041
▁studios	-10.0412
▁avoid	-10.0415
▁75	-10.0415
▁basis	-10.0422
▁measure	-10.0423
▁forward	-10.0426
▁govern	-10.043
▁sales	-10.0433
▁astronomer	-10.0435
▁wilson	-10.0436
▁norway	-10.0436
▁adams	-10.0438
▁protect	-10.0438
▁legend	-10.0447
▁shore	-10.045
▁sweet	-10.045
▁soil	-10.0451
more	-10.0452
▁alliance	-10.0452
▁brain	-10.0453
▁translation	-10.0453
ong	-10.0458
▁send	-10.0467
▁bob	-10.0468
▁mediterranean	-10.0469
▁deaths	-10.047
▁ant	-10.0484
▁chocolate	-10.0487
▁tribes	-10.0487
chi	-10.0492
▁fast	-10.0496
▁mayenn	-10.0499
▁carried	-10.0499
▁colorado	-10.0504
▁300	-10.0504
▁desert	-10.0518
▁franchise	-10.052
ow	-10.0521
▁sar	-10.0524
▁stream	-10.0527
▁killing	-10.0531
▁wing	-10.0544
▁jones	-10.0549
▁yorkshire	-10.0561
▁treat	-10.0569
▁rugby	-10.057
▁oppos	-10.0571
▁campus	-10.0573
▁explorer	-10.0575
▁add	-10.0582
▁grown	-10.059
▁shared	-10.0607
▁unique	-10.0611
▁1914	-10.0617
▁wilhelm	-10.0621
▁comprise	-10.0625
house	-10.063
▁juan	-10.0635
20	-10.0641
▁micro	-10.0642
▁defend	-10.0646
ng	-10.0648
▁continent	-10.0649
▁jo	-10.065
▁request	-10.0656
▁nominated	-10.066
▁hong	-10.066
▁sp	-10.0669
▁extensive	-10.0673
▁var	-10.0683
▁karl	-10.0685
▁review	-10.0689
▁retriev	-10.069
▁hands	-10.0694
▁surround	-10.0697
▁issue	-10.0704
▁han	-10.0704
ju	-10.0713
86	-10.072
▁organisms	-10.0727
▁domestic	-10.0742
▁hitler	-10.0743
▁selection	-10.0754
▁brian	-10.0759
▁invasion	-10.0776
▁spirit	-10.078
▁seem	-10.0783
▁150	-10.079
▁pick	-10.0801
▁graduat	-10.0805
▁prayer	-10.0806
▁affairs	-10.0807
ara	-10.0809
▁twenty	-10.081
▁aargau	-10.0811
▁abbottabad	-10.0811
▁bit	-10.0818
▁adam	-10.0818
▁championships	-10.0824
▁occurs	-10.0824
▁wwf	-10.0828
▁liberal	-10.0831
gu	-10.0845
▁bavaria	-10.0849
▁wa	-10.0849
ano	-10.0853
con	-10.0854
▁republican	-10.0861
▁madrid	-10.0863
▁rio	-10.088
▁dream	-10.0883
▁williams	-10.0884
▁designation	-10.0887
▁gang	-10.0891
▁straight	-10.0893
▁fan	-10.0894
▁tracks	-10.0898
▁joe	-10.0905
▁engines	-10.0905
▁walk	-10.091
▁expansion	-10.0916
▁ki	-10.0921
vo	-10.0923
▁sciences	-10.0932
▁florence	-10.0934
▁fifa	-10.0934
▁sons	-10.0948
▁let	-10.0949
cher	-10.0951
▁musicians	-10.0951
▁throne	-10.0951
▁specifically	-10.0953
▁1911	-10.0955
senate	-10.0958
ay	-10.097
▁response	-10.097
▁1923	-10.0971
▁1928	-10.0973
▁replace	-10.0976
▁care	-10.0977
▁chapel	-10.0977
▁mentioned	-10.0981
▁occurred	-10.0987
▁flowers	-10.1
▁matt	-10.1001
▁grammy	-10.1004
▁sch	-10.1005
▁finland	-10.1005
▁1926	-10.1007
ward	-10.1013
▁extended	-10.102
▁obtain	-10.1022
▁biology	-10.1023
▁councils	-10.1025
▁drums	-10.103
▁celebrat	-10.1034
kin	-10.1036
▁creek	-10.104
▁chairman	-10.1043
▁fuel	-10.1054
▁christianity	-10.1055
▁roll	-10.1058
▁respectively	-10.1065
br	-10.1075
▁kim	-10.1077
ip	-10.1086
life	-10.1089
▁sang	-10.1094
▁demand	-10.1094
▁register	-10.1095
▁notably	-10.1099
▁score	-10.11
▁composition	-10.1104
▁crystal	-10.1112
21	-10.1113
▁1922	-10.1114
▁identified	-10.1121
▁frontier	-10.1132
▁guide	-10.1135
▁38	-10.1136
▁er	-10.1141
▁retain	-10.1147
▁montreal	-10.1147
▁danish	-10.1148
▁crash	-10.1157
▁hemisphere	-10.1165
▁contrast	-10.1166
▁save	-10.1172
▁meters	-10.1174
▁mike	-10.1184
▁striker	-10.1187
▁coming	-10.1195
▁banks	-10.1195
▁determin	-10.1196
▁compounds	-10.1206
▁pilot	-10.1215
ck	-10.1227
▁guest	-10.1235
▁matthew	-10.1238
▁writers	-10.1251
▁violin	-10.1253
▁continental	-10.1256
▁johnson	-10.1256
▁mainland	-10.1259
▁jews	-10.1267
▁fossil	-10.1271
▁locomotive	-10.1275
▁singing	-10.1288
▁ending	-10.1289
▁dar	-10.1291
▁vietnam	-10.1292
▁ethnic	-10.1292
▁pair	-10.1293
year	-10.1293
▁uncle	-10.1294
▁dis	-10.1297
fa	-10.1307
▁municipal	-10.1308
▁issued	-10.1324
rs	-10.1325
▁interview	-10.1326
▁parish	-10.1327
▁politics	-10.1329
▁heavyweight	-10.1329
mont	-10.1332
▁immediately	-10.1339
▁achiev	-10.1342
▁couple	-10.1344
▁incorporated	-10.1345
▁template	-10.1345
▁decision	-10.1347
▁encyclopedia	-10.1351
▁pole	-10.1358
▁theme	-10.1359
▁plot	-10.1359
▁playstation	-10.1366
▁plastic	-10.1368
▁smallest	-10.1386
▁pr	-10.1386
▁contemporary	-10.1389
▁unusual	-10.1403
▁chancellor	-10.1403
▁guard	-10.1411
▁hope	-10.1421
▁meant	-10.1427
11	-10.1437
▁comedian	-10.144
▁treatment	-10.1441
pur	-10.1441
▁operations	-10.1442
▁ro	-10.145
▁chemistry	-10.1459
▁confirm	-10.1462
▁sites	-10.1464
▁usage	-10.1468
▁waters	-10.1468
▁possibly	-10.1477
▁fellow	-10.1478
▁egyptian	-10.1483
▁suffer	-10.1488
▁performing	-10.1494
one	-10.1497
▁server	-10.1497
▁cloud	-10.1498
▁survivor	-10.1498
▁1908	-10.1499
▁coat	-10.1509
▁prefecture	-10.1514
▁crime	-10.1517
▁alfred	-10.1518
▁flood	-10.1527
▁capacity	-10.1533
▁follows	-10.1537
▁potter	-10.1539
▁conflict	-10.1553
▁plane	-10.1554
▁protection	-10.1556
▁parties	-10.1558
▁moons	-10.1559
▁positive	-10.1572
▁ages	-10.1572
▁ottoman	-10.1573
▁abbreviated	-10.1573
▁relations	-10.1577
▁37	-10.158
▁payperview	-10.1589
▁pianist	-10.1589
▁broke	-10.1592
▁bright	-10.1594
▁1921	-10.1599
▁lay	-10.1602
hu	-10.1604
▁goddess	-10.1608
▁palm	-10.161
▁sc	-10.1613
▁kinds	-10.1617
▁row	-10.1621
▁traffic	-10.1627
▁visual	-10.1627
▁literary	-10.1627
▁argentine	-10.1627
dela	-10.1628
▁signal	-10.1633
▁resulting	-10.1634
▁gu	-10.1644
▁hat	-10.1646
▁ali	-10.1657
▁dogs	-10.1665
▁samuel	-10.1666
▁advance	-10.1668
▁youngest	-10.1677
▁easily	-10.1684
▁meat	-10.1686
▁sh	-10.169
▁organizations	-10.1692
▁coastal	-10.1699
mouth	-10.17
▁mechanical	-10.1705
▁suggested	-10.1705
▁influen	-10.1719
▁benjamin	-10.1722
▁philadelphia	-10.1722
▁guinea	-10.1723
▁proper	-10.1725
▁bu	-10.1726
▁murder	-10.1732
▁opposition	-10.1741
▁fe	-10.1742
ese	-10.1748
▁mars	-10.1754
▁hollywood	-10.176
▁sail	-10.1764
▁pa	-10.1765
▁computers	-10.1767
zo	-10.1768
▁difference	-10.1769
▁agreed	-10.178
▁gene	-10.1781
▁failed	-10.1782
▁historically	-10.1786
▁electrical	-10.1791
▁evil	-10.1801
▁presidential	-10.1804
▁individuals	-10.1805
▁ri	-10.1805
ize	-10.1808
▁bound	-10.1809
▁fell	-10.1811
▁anna	-10.1817
▁recordings	-10.1817
▁mexican	-10.1819
▁cor	-10.1821
▁constant	-10.1822
▁mammals	-10.1827
ari	-10.1827
worth	-10.1831
▁ash	-10.1832
▁bangladesh	-10.1832
▁colonial	-10.1839
▁bros	-10.1845
▁titled	-10.1855
▁simon	-10.1855
40	-10.1857
all	-10.186
▁paulo	-10.1863
▁workers	-10.1863
▁dedicat	-10.1868
ett	-10.188
stein	-10.189
▁tip	-10.189
▁fans	-10.1892
▁programming	-10.1895
▁36	-10.1903
▁arena	-10.1907
▁figures	-10.1912
▁throw	-10.1915
mon	-10.1919
▁subtropic	-10.1922
min	-10.193
fo	-10.1934
▁cap	-10.1937
▁ends	-10.1941
res	-10.1945
▁trans	-10.1948
▁hotel	-10.1951
▁vocalist	-10.1956
▁clock	-10.1959
▁captured	-10.1963
▁fly	-10.1967
▁op	-10.1969
▁northeastern	-10.1973
▁arizona	-10.1992
▁birmingham	-10.1992
▁fleet	-10.1998
▁functions	-10.1999
▁miss	-10.2
▁arriv	-10.2005
ken	-10.2006
▁champions	-10.201
▁lakes	-10.2011
▁ferdinand	-10.2012
35	-10.2018
▁bought	-10.2018
back	-10.2021
▁joint	-10.2023
▁muslims	-10.2025
▁employ	-10.2031
ever	-10.2034
▁perfect	-10.2036
▁eu	-10.204
▁mill	-10.2041
▁mis	-10.2041
▁rb	-10.2049
▁geography	-10.2051
▁philharmonic	-10.2052
▁geneva	-10.2053
99	-10.2053
▁sell	-10.2055
39	-10.2067
▁noble	-10.2073
▁1917	-10.2076
▁cu	-10.2085
▁elder	-10.2094
▁follow	-10.2096
▁kings	-10.2096
▁rapid	-10.2104
▁ticino	-10.211
▁saying	-10.2126
▁critical	-10.2126
▁clubs	-10.2129
▁enjoy	-10.213
▁hungarian	-10.213
▁wrestlemania	-10.213
34	-10.2143
▁passenger	-10.2146
ists	-10.2148
▁fresh	-10.215
▁quebec	-10.215
▁friedrich	-10.215
▁sequence	-10.2151
▁sharp	-10.2153
▁ci	-10.2156
▁slow	-10.2157
▁founding	-10.2158
ess	-10.2166
▁chamber	-10.217
▁wisconsin	-10.217
▁ecw	-10.2172
ran	-10.2174
▁ken	-10.2186
▁measur	-10.2186
▁mathematician	-10.2187
▁equivalent	-10.219
bu	-10.2191
bal	-10.2192
▁delta	-10.2194
▁visible	-10.2196
▁map	-10.2199
▁reflect	-10.2204
▁chile	-10.2208
▁ru	-10.2209
▁owner	-10.2209
▁maximum	-10.2212
▁mobile	-10.2217
ae	-10.2222
▁tool	-10.2223
▁plain	-10.2225
▁nba	-10.223
▁anthem	-10.223
▁chance	-10.2236
war	-10.2237
hl	-10.2241
60	-10.2256
▁maya	-10.2257
ita	-10.2257
▁journalist	-10.2263
▁pyr	-10.2266
13	-10.2266
▁pioneer	-10.2269
▁roger	-10.2273
▁touch	-10.2274
▁48	-10.2278
▁advanced	-10.2281
▁separat	-10.2283
ok	-10.2288
▁issues	-10.2289
▁communities	-10.229
▁42	-10.2293
▁inner	-10.2298
▁catch	-10.23
har	-10.23
▁gods	-10.2306
▁existence	-10.2312
▁1931	-10.2313
▁weaken	-10.2315
▁attention	-10.2315
▁firm	-10.2328
▁saturday	-10.2331
▁concerts	-10.2336
▁sin	-10.2336
▁ultimate	-10.2354
ure	-10.2359
▁deliver	-10.236
▁successor	-10.2362
▁1913	-10.2363
▁paintings	-10.2365
▁afghanistan	-10.2371
▁detroit	-10.2371
▁properties	-10.2372
▁radiation	-10.2372
▁popularity	-10.2377
▁gi	-10.2384
38	-10.2388
▁tar	-10.2391
▁caesar	-10.2392
▁background	-10.2392
▁inc	-10.2394
▁1916	-10.2396
▁install	-10.24
▁attract	-10.2407
▁hawaii	-10.2408
▁capture	-10.2408
▁cemeter	-10.2412
▁choice	-10.2413
su	-10.2423
ice	-10.243
iz	-10.2432
▁norwegian	-10.2433
▁effective	-10.2435
ory	-10.2437
▁disk	-10.2437
▁structures	-10.2437
ica	-10.244
▁description	-10.2453
▁darwin	-10.2453
▁400	-10.2456
▁analysis	-10.2457
ria	-10.2463
▁skill	-10.2464
▁designer	-10.2468
▁observed	-10.2469
▁weapons	-10.247
american	-10.2477
▁ros	-10.2482
▁designated	-10.2482
▁goaltender	-10.2494
loire	-10.2495
▁partner	-10.2502
▁trial	-10.2504
▁disc	-10.2505
we	-10.2506
▁methods	-10.2511
▁boundary	-10.2516
07	-10.2518
▁poetry	-10.2518
▁43	-10.2519
▁agent	-10.2525
▁wings	-10.2529
az	-10.2531
▁sides	-10.2534
▁magnitude	-10.2536
▁journey	-10.2536
▁why	-10.2536
off	-10.254
▁expected	-10.2544
▁charts	-10.2546
level	-10.2548
▁condition	-10.2553
▁puerto	-10.2556
▁crust	-10.2558
enne	-10.2559
▁harrison	-10.2561
▁semi	-10.2561
▁scored	-10.2562
▁creat	-10.2563
▁priest	-10.2563
▁selling	-10.2566
▁friday	-10.2577
▁fear	-10.2581
istic	-10.2583
▁races	-10.2585
▁physicist	-10.2598
▁coffee	-10.2598
▁cabinet	-10.2598
ill	-10.2598
▁transferr	-10.2607
org	-10.2618
▁hydrogen	-10.2619
▁assistant	-10.2619
▁lewis	-10.2623
▁villages	-10.2625
▁za	-10.2628
▁standing	-10.2633
▁ver	-10.2634
singersongwriter	-10.264
28	-10.264
▁ruler	-10.2644
▁application	-10.2647
▁marked	-10.2659
▁missouri	-10.266
▁statistical	-10.266
▁unknown	-10.2661
▁hunt	-10.2669
▁poem	-10.2671
▁iraq	-10.2671
▁managed	-10.2681
▁rob	-10.2683
▁cha	-10.2685
▁virus	-10.2687
▁vehicle	-10.269
▁organic	-10.2699
▁vancouver	-10.2702
▁onto	-10.2705
▁painting	-10.271
▁surviv	-10.271
▁technique	-10.2711
▁tube	-10.2712
lan	-10.2714
▁remember	-10.2724
▁indonesia	-10.273
▁percent	-10.2745
▁mercury	-10.2745
▁talent	-10.2746
tu	-10.2748
▁trust	-10.275
▁layer	-10.2756
▁strip	-10.2757
▁muhammad	-10.2766
ud	-10.2777
tt	-10.2778
pp	-10.2782
▁resort	-10.2787
▁degrees	-10.2788
iv	-10.279
▁hebrew	-10.2808
▁presence	-10.2808
▁trip	-10.2821
▁monte	-10.2828
▁tail	-10.2829
▁failure	-10.2829
▁beatles	-10.2831
▁diego	-10.2832
▁particles	-10.2838
ren	-10.2838
▁39	-10.2843
▁rhythm	-10.2847
▁reasons	-10.2854
▁1903	-10.2855
ire	-10.2855
▁waves	-10.2855
▁screen	-10.2856
▁rolling	-10.2861
▁baron	-10.2867
▁purposes	-10.2869
▁mor	-10.2871
▁involve	-10.2872
▁com	-10.2876
mp	-10.2877
▁pot	-10.2881
▁promotion	-10.2885
light	-10.2887
▁beyon	-10.2887
▁gross	-10.2892
▁lands	-10.2892
▁oxygen	-10.2893
▁heaven	-10.2894
▁renaissance	-10.2894
▁importance	-10.2894
fl	-10.2896
▁quality	-10.2896
▁dating	-10.2899
▁auto	-10.29
▁eleven	-10.2904
of	-10.2905
▁transfer	-10.2906
▁eric	-10.2909
▁1890	-10.2918
▁scientists	-10.2926
▁kilometers	-10.2934
▁decades	-10.2939
yan	-10.294
▁arch	-10.2943
▁warner	-10.2957
▁intelligence	-10.2959
▁fiber	-10.296
▁diet	-10.296
▁mile	-10.2962
bit	-10.2964
▁stands	-10.2972
▁neptune	-10.298
▁vauclus	-10.298
▁walls	-10.298
chen	-10.2982
▁arc	-10.2986
▁settl	-10.2993
▁communication	-10.2996
▁planned	-10.2997
▁flavor	-10.2999
ap	-10.2999
▁evolv	-10.2999
▁charlotte	-10.3001
▁ga	-10.3001
▁mathematical	-10.3002
▁philippines	-10.3004
▁differ	-10.3007
▁clay	-10.3011
▁teaching	-10.3014
▁fit	-10.3014
▁collect	-10.3014
▁net	-10.3016
▁knowledge	-10.3023
▁westminster	-10.3024
▁pierre	-10.3031
▁classes	-10.3036
▁hans	-10.3038
80	-10.3045
▁miller	-10.3046
▁patrick	-10.3047
▁oxide	-10.3052
46	-10.3054
26	-10.3058
▁holding	-10.3061
▁tony	-10.3063
▁participat	-10.3067
▁distributed	-10.3071
▁q	-10.3073
▁strengthen	-10.3074
▁rat	-10.3079
ella	-10.308
▁differences	-10.308
▁taiwan	-10.3088
▁anthony	-10.3088
▁vii	-10.3096
▁neu	-10.3099
27	-10.3104
▁solution	-10.3106
▁equipment	-10.311
▁pittsburgh	-10.311
ular	-10.3115
32	-10.3119
▁sum	-10.312
▁41	-10.3131
ab	-10.3131
▁uniform	-10.3133
▁charter	-10.3139
ani	-10.3147
▁ian	-10.3153
▁shell	-10.3154
▁income	-10.316
lu	-10.3166
▁decade	-10.3174
▁beautiful	-10.3176
▁cheese	-10.3178
▁values	-10.3189
▁jet	-10.3195
▁65	-10.3196
▁faith	-10.3198
moto	-10.3201
▁happened	-10.3206
▁leap	-10.3224
ub	-10.3228
ula	-10.3229
▁raid	-10.3237
▁drivers	-10.3247
▁temperatures	-10.3248
▁ren	-10.3249
▁characteristics	-10.3251
▁viii	-10.3261
▁cipher	-10.3265
tis	-10.3265
▁introduction	-10.3266
▁negative	-10.3266
45	-10.3268
▁sarah	-10.3268
▁grey	-10.3273
▁accident	-10.3279
▁inches	-10.3279
▁plate	-10.328
▁phoenix	-10.3287
▁crew	-10.3288
▁critics	-10.329
▁hip	-10.3295
▁antonio	-10.3299
shi	-10.3302
▁fur	-10.3312
ston	-10.3313
▁adapt	-10.3315
▁shah	-10.3318
▁den	-10.3322
yearold	-10.3329
▁bacteria	-10.333
▁jefferson	-10.3332
▁blind	-10.3332
▁inclination	-10.3332
▁safety	-10.3332
▁55	-10.3334
▁monday	-10.3334
05	-10.3339
▁homo	-10.3339
▁twin	-10.3344
▁assign	-10.3348
▁voted	-10.3351
▁kennedy	-10.3354
▁knight	-10.3357
90	-10.3357
▁jam	-10.3365
▁models	-10.3368
▁neighbor	-10.3376
▁tennessee	-10.3377
ability	-10.3385
▁canal	-10.339
▁ur	-10.3394
▁broken	-10.3394
▁academic	-10.34
▁hop	-10.3401
▁cooper	-10.3402
▁moment	-10.3406
▁bassist	-10.3407
▁copy	-10.3409
▁storms	-10.3411
▁thin	-10.3416
▁prey	-10.3417
ves	-10.3422
▁romantic	-10.3429
29	-10.343
▁rush	-10.3435
▁extinct	-10.3441
▁glasgow	-10.3444
▁shadow	-10.3444
▁representatives	-10.3451
▁tend	-10.3464
▁atmosphere	-10.3467
▁liverpool	-10.3467
where	-10.3467
▁huge	-10.3469
▁1865	-10.347
▁drug	-10.3473
▁claims	-10.3476
▁alpes	-10.3487
▁leaders	-10.3494
▁reduced	-10.3495
▁representing	-10.3497
▁lime	-10.3512
▁companion	-10.3512
▁graham	-10.3513
▁push	-10.3515
▁message	-10.3518
▁spelling	-10.3521
▁attached	-10.3522
temporary	-10.3528
gar	-10.353
dale	-10.3532
.3	-10.3533
▁asteroids	-10.3535
▁basin	-10.3537
row	-10.354
▁step	-10.354
67	-10.3541
▁males	-10.3546
▁mp	-10.3552
▁apart	-10.3557
▁column	-10.3558
▁facilities	-10.3558
▁globe	-10.3558
ette	-10.356
▁arkansas	-10.3581
ide	-10.3582
88	-10.3585
▁oak	-10.3587
▁mtv	-10.3588
▁worth	-10.3593
▁statement	-10.3593
▁shift	-10.3606
▁processes	-10.3606
▁output	-10.3606
af	-10.3619
▁items	-10.3624
feld	-10.3625
▁respect	-10.3627
2004	-10.3628
▁residents	-10.3629
▁rice	-10.364
▁que	-10.3641
▁mode	-10.3642
▁appearances	-10.3645
▁depict	-10.3646
▁cuba	-10.365
▁adventures	-10.3652
▁jeff	-10.3652
▁1861	-10.3652
▁1895	-10.3653
▁1904	-10.3655
▁1915	-10.3655
ick	-10.3656
▁genetic	-10.3659
▁newly	-10.3662
▁coin	-10.3662
▁arrive	-10.3672
▁lie	-10.3673
▁bach	-10.3674
▁overview	-10.3677
▁voyager	-10.3677
▁visited	-10.3677
▁warning	-10.368
▁holiday	-10.3682
▁phrase	-10.3683
▁derive	-10.3691
▁em	-10.3698
▁dragon	-10.3709
▁laboratory	-10.372
▁diesel	-10.3722
▁copper	-10.3723
▁bernard	-10.3724
bar	-10.3727
22	-10.3728
▁mer	-10.3731
▁hero	-10.3735
▁tre	-10.3737
▁formally	-10.374
0	-10.374
▁shear	-10.3744
▁dress	-10.375
▁howard	-10.3751
▁scientist	-10.3754
▁publishing	-10.376
▁existing	-10.3766
▁barcelona	-10.3767
▁rescue	-10.3769
▁1902	-10.3769
▁paid	-10.377
▁mouse	-10.3771
▁expression	-10.3775
▁lion	-10.3776
ala	-10.3777
ting	-10.379
▁franklin	-10.3791
▁infection	-10.3794
▁1906	-10.3796
bl	-10.38
▁reality	-10.3804
ors	-10.3805
gg	-10.381
▁lennon	-10.3814
▁und	-10.3815
▁autonomous	-10.3817
▁bruce	-10.3818
▁equator	-10.382
▁wiki	-10.3821
▁kg	-10.3821
▁wealth	-10.3822
red	-10.3822
▁cards	-10.3827
▁pool	-10.3829
▁reaction	-10.3829
▁magic	-10.3833
ida	-10.3833
▁lawrence	-10.3837
▁supply	-10.3837
▁legs	-10.3838
▁climb	-10.3838
▁zero	-10.384
▁manga	-10.3843
▁stretch	-10.3843
42	-10.3844
▁alan	-10.3846
▁stem	-10.3848
▁medium	-10.3854
▁bal	-10.3858
▁gre	-10.3859
▁44	-10.3868
▁leonard	-10.387
2000	-10.3875
▁rod	-10.3884
▁choir	-10.3886
▁processor	-10.3888
▁waste	-10.3894
osa	-10.3895
▁correct	-10.3895
▁sample	-10.3895
▁begin	-10.3901
▁fu	-10.3905
▁ardch	-10.3906
ible	-10.3907
▁thirteen	-10.3908
▁euro	-10.3912
▁pink	-10.3917
▁risk	-10.3918
lon	-10.3923
▁aid	-10.3928
▁projects	-10.3928
04	-10.3936
▁performances	-10.394
▁metro	-10.3943
▁magnetic	-10.3958
▁leg	-10.3973
▁ceremony	-10.3979
▁byzantine	-10.398
▁1905	-10.3985
▁weak	-10.3987
▁ger	-10.3995
▁ab	-10.3997
▁carlos	-10.3999
▁reject	-10.3999
rich	-10.4
▁storage	-10.4004
▁wins	-10.4011
▁affected	-10.4012
▁sovereign	-10.4013
▁extension	-10.402
▁cave	-10.4023
▁expedition	-10.4027
▁jordan	-10.4027
▁testament	-10.4027
▁finnish	-10.4028
▁ram	-10.4028
bra	-10.403
▁elections	-10.403
ku	-10.4036
▁electricity	-10.4038
▁steam	-10.4039
▁sets	-10.4048
▁occupation	-10.4051
▁idaho	-10.4051
▁andor	-10.4055
▁pure	-10.4056
▁billy	-10.4058
▁alice	-10.4061
▁learning	-10.4062
▁devices	-10.4068
art	-10.407
▁judge	-10.4072
▁resign	-10.4074
▁buffalo	-10.4075
▁eighth	-10.4076
▁1891	-10.4078
▁cable	-10.4081
▁para	-10.4083
▁har	-10.409
landers	-10.4092
▁bomb	-10.4093
▁horn	-10.4101
▁seeds	-10.4103
▁extra	-10.4104
ou	-10.411
▁yu	-10.4119
▁titan	-10.4123
▁anime	-10.4125
▁goods	-10.4125
▁monarch	-10.4127
▁ballet	-10.4133
.5	-10.4134
▁rarely	-10.4141
▁context	-10.4144
sky	-10.4146
port	-10.4146
▁virtual	-10.4158
▁cro	-10.4161
▁gardens	-10.4161
▁stores	-10.4162
▁cur	-10.4168
▁roots	-10.4169
top	-10.417
▁kent	-10.4177
▁occasion	-10.4178
ence	-10.418
▁duch	-10.4182
▁slowly	-10.4183
▁useful	-10.4183
▁carry	-10.4183
▁affect	-10.4185
▁wolf	-10.4191
▁pit	-10.4195
▁entitl	-10.4197
ct	-10.4197
▁pat	-10.4204
je	-10.4212
▁composers	-10.4212
▁destroy	-10.4214
▁sisters	-10.4214
▁protest	-10.4221
▁walloon	-10.4222
▁catherine	-10.4222
70	-10.4225
▁visitor	-10.424
ll	-10.4243
▁principle	-10.4244
▁goalkeeper	-10.4246
▁seattle	-10.4246
▁xbox	-10.4247
▁authorities	-10.4248
▁creator	-10.4252
▁worn	-10.4253
▁1907	-10.4253
▁exception	-10.4254
▁manufacture	-10.4258
▁felt	-10.426
▁camera	-10.4261
▁pepper	-10.4269
▁pattern	-10.4269
▁tamil	-10.4271
▁pale	-10.4272
▁concentration	-10.4272
sburg	-10.4282
enburg	-10.4283
▁lens	-10.4284
▁fia	-10.4291
▁flash	-10.4298
▁hir	-10.4302
▁debate	-10.4303
oma	-10.4307
air	-10.4308
mb	-10.4308
▁distinguished	-10.4313
▁worship	-10.4315
77	-10.4319
▁biological	-10.432
▁bobby	-10.4321
▁rangers	-10.4329
▁boat	-10.4336
▁weekly	-10.4337
mu	-10.4338
▁counter	-10.4339
▁factor	-10.434
▁gro	-10.434
▁ham	-10.4342
▁hits	-10.4342
century	-10.4344
▁architect	-10.4344
▁urdu	-10.4345
▁acquir	-10.4347
▁seek	-10.4353
▁baptist	-10.4356
▁haiti	-10.4365
24	-10.4365
▁cousin	-10.4369
▁monaster	-10.4369
▁gaelic	-10.4369
ric	-10.437
▁davis	-10.4371
▁jon	-10.4378
bel	-10.4379
▁bra	-10.438
▁tools	-10.438
▁tourist	-10.4382
▁custom	-10.4384
44	-10.439
▁gothic	-10.4398
let	-10.44
ev	-10.44
▁pain	-10.4405
▁cow	-10.4409
▁essential	-10.4419
▁setting	-10.4427
▁manufacturer	-10.4431
▁promote	-10.4439
▁females	-10.444
▁environmental	-10.4443
▁descent	-10.4444
hill	-10.4445
▁chair	-10.4447
ised	-10.4456
illy	-10.4457
▁welsh	-10.4469
▁amateur	-10.4469
▁animation	-10.4469
▁instance	-10.4469
▁colonies	-10.4471
tv	-10.4472
▁moral	-10.4473
bert	-10.4474
▁gate	-10.448
▁tram	-10.448
▁clothing	-10.4481
▁succession	-10.4482
wan	-10.4486
ew	-10.4488
▁dia	-10.449
▁io	-10.449
▁buy	-10.4492
▁shorten	-10.4494
▁economics	-10.4494
▁widespread	-10.4494
▁activist	-10.4496
▁allen	-10.4497
fish	-10.4499
▁resources	-10.4499
▁vertical	-10.45
▁determine	-10.4506
▁bud	-10.4507
▁mad	-10.4509
▁promot	-10.4513
▁monroe	-10.4519
36	-10.4529
▁46	-10.4532
uff	-10.4534
▁seal	-10.4535
▁ridge	-10.4539
eck	-10.454
▁jerusalem	-10.4545
▁decide	-10.4549
▁bann	-10.455
▁wii	-10.4551
▁suite	-10.4551
ato	-10.4552
▁door	-10.456
▁tin	-10.4562
▁client	-10.4569
▁britannica	-10.457
▁wagner	-10.457
▁muscle	-10.4571
▁ill	-10.4572
▁transportation	-10.4575
▁vocal	-10.4575
▁bread	-10.4575
▁lieutenant	-10.4595
uch	-10.4596
▁cr	-10.4596
▁tax	-10.4603
▁corner	-10.4604
▁package	-10.4604
▁citizens	-10.4606
ft	-10.4608
▁vehicles	-10.461
ene	-10.4617
▁ukraine	-10.4621
▁ke	-10.4624
▁bon	-10.4628
qu	-10.4632
▁pet	-10.4638
98	-10.4646
▁airlines	-10.4648
▁va	-10.4648
▁wheel	-10.4648
▁marshall	-10.4649
tra	-10.4654
▁insects	-10.4654
25	-10.4658
tte	-10.4664
▁safe	-10.4665
▁meets	-10.4667
▁prov	-10.4668
▁gospel	-10.4672
▁teeth	-10.4672
▁quantum	-10.4672
93	-10.4674
▁1880	-10.4675
▁bengal	-10.4675
▁naval	-10.4676
▁las	-10.4681
▁neck	-10.4687
▁novelist	-10.4691
▁reform	-10.4695
▁edinburgh	-10.4697
▁massive	-10.4703
▁1909	-10.4704
▁gnu	-10.4705
▁noted	-10.4707
▁experiment	-10.4707
▁elephant	-10.4723
▁iceland	-10.4724
▁hor	-10.4725
▁norman	-10.4725
long	-10.473
▁ny	-10.4737
▁switch	-10.4738
▁planets	-10.474
▁gay	-10.4742
01	-10.4743
08	-10.4747
▁uefa	-10.4749
▁belief	-10.4759
▁bone	-10.4759
▁hence	-10.4765
ise	-10.4765
▁dropp	-10.4772
▁sit	-10.4774
▁1889	-10.4778
ny	-10.478
▁mineral	-10.4781
can	-10.4782
ena	-10.4786
▁bio	-10.479
▁fo	-10.4792
▁telephone	-10.4801
ile	-10.4802
▁sauce	-10.4803
▁hub	-10.4803
▁duo	-10.4817
▁fun	-10.4822
▁labour	-10.4827
▁cream	-10.4827
▁1898	-10.483
▁produc	-10.4832
▁soap	-10.4833
▁ng	-10.4845
▁volcani	-10.4853
▁resistance	-10.4854
▁leadership	-10.4855
49	-10.4857
23	-10.4859
30	-10.4865
▁bat	-10.4866
▁reduce	-10.4867
▁ze	-10.4867
▁strings	-10.4872
.7	-10.4876
▁serious	-10.4877
▁atlanta	-10.4879
▁kevin	-10.4879
▁louisiana	-10.4879
▁reich	-10.4881
▁audio	-10.489
▁85	-10.4892
▁quarter	-10.4896
▁hay	-10.49
▁springs	-10.4901
▁nicholas	-10.4905
▁margaret	-10.4905
87	-10.4907
▁thirty	-10.491
▁stress	-10.491
▁check	-10.491
▁chase	-10.4914
▁hindu	-10.4918
▁analog	-10.4918
▁organist	-10.492
▁carter	-10.492
▁om	-10.493
▁everything	-10.4932
▁measurement	-10.4933
▁mail	-10.4934
ue	-10.4938
gun	-10.4939
fu	-10.494
▁logic	-10.4944
▁computing	-10.4944
▁250	-10.4946
▁characteriz	-10.4949
▁price	-10.495
ane	-10.4952
85	-10.4953
ei	-10.4956
▁download	-10.4958
▁gal	-10.4958
▁rh	-10.4959
▁getting	-10.496
▁scar	-10.4976
▁sort	-10.4978
▁contributions	-10.4983
▁survive	-10.4984
▁horror	-10.4984
▁hull	-10.4985
▁favorite	-10.4985
cl	-10.4992
▁sri	-10.5
▁hide	-10.5002
▁reviews	-10.5009
▁advantage	-10.501
▁arctic	-10.5012
▁bart	-10.5013
ros	-10.5015
▁thick	-10.5017
▁ker	-10.5019
▁wo	-10.5022
▁branches	-10.5023
▁ber	-10.5024
▁techniques	-10.5026
▁rocks	-10.5027
▁civilization	-10.5028
▁austin	-10.5037
ug	-10.5046
▁cooking	-10.5047
▁1870	-10.5053
▁processing	-10.5053
▁corps	-10.5055
▁120	-10.5057
tz	-10.5058
▁moves	-10.5061
57	-10.5061
▁agriculture	-10.5063
▁douglas	-10.5064
▁wound	-10.5064
ram	-10.5065
▁threaten	-10.507
▁styles	-10.5078
▁homer	-10.5079
▁cool	-10.5089
▁gradual	-10.509
▁apparent	-10.509
▁conquest	-10.509
▁childhood	-10.5091
▁scheme	-10.5091
▁evolutionary	-10.5092
▁scholars	-10.5094
▁bow	-10.5095
69	-10.5095
▁franz	-10.5101
▁feed	-10.5105
▁wish	-10.5105
06	-10.5107
.1	-10.5107
81	-10.5111
▁clean	-10.5117
▁clinton	-10.5118
▁origins	-10.5119
▁tr	-10.5123
▁mega	-10.513
▁notice	-10.5135
▁mix	-10.5136
▁representative	-10.5136
▁coal	-10.5137
hara	-10.514
▁dor	-10.5141
▁agree	-10.5142
▁sodium	-10.5145
illa	-10.5145
▁connection	-10.515
▁passage	-10.5151
▁hardy	-10.5153
▁root	-10.5156
▁senator	-10.5163
cu	-10.5164
▁harbor	-10.5165
▁christians	-10.5165
▁detect	-10.5165
▁involv	-10.5166
73	-10.5166
sp	-10.5169
ily	-10.5169
▁identity	-10.5171
▁loop	-10.5172
▁lemon	-10.5173
▁egg	-10.5176
▁publication	-10.5182
▁covering	-10.5183
▁poems	-10.5188
▁fluid	-10.5191
▁strait	-10.5191
▁baker	-10.5194
▁1800	-10.5194
▁choose	-10.5195
▁compris	-10.5195
del	-10.5195
▁grace	-10.5198
▁lawyer	-10.5203
▁1857	-10.5204
▁shock	-10.5208
▁wi	-10.5211
▁moore	-10.5214
▁tra	-10.5223
▁mixture	-10.5225
▁invit	-10.5231
ux	-10.5235
▁fishing	-10.5248
▁sindh	-10.525
▁fourteen	-10.5253
▁bor	-10.5262
▁prussia	-10.5264
ean	-10.5266
▁pitch	-10.5271
▁chapter	-10.5274
▁subdivision	-10.5274
▁offered	-10.5274
▁hardware	-10.528
▁nothing	-10.5282
▁sacr	-10.5284
▁quick	-10.5285
▁manhattan	-10.5306
▁accompani	-10.5307
kh	-10.5307
world	-10.5308
▁organism	-10.531
▁fixed	-10.5311
▁hole	-10.5313
▁distinguish	-10.5315
▁practical	-10.5318
▁95	-10.5322
▁jura	-10.5322
▁survey	-10.5328
▁scholar	-10.5329
▁absorb	-10.5334
▁assum	-10.5334
▁exhibition	-10.5336
▁interior	-10.5341
vin	-10.5343
▁forests	-10.5343
ec	-10.5343
▁nick	-10.5356
om	-10.5356
▁athletic	-10.5357
▁favor	-10.5357
▁1860	-10.5358
▁platinum	-10.5361
▁bronze	-10.5361
▁edmund	-10.5361
▁hugo	-10.5367
▁47	-10.5368
▁input	-10.5368
▁rapidly	-10.5373
▁executed	-10.5375
▁kurt	-10.5376
▁bak	-10.5377
59	-10.5377
▁gm	-10.5378
▁discover	-10.5381
▁luis	-10.5382
▁sale	-10.5383
▁tru	-10.5384
▁situation	-10.5385
▁gland	-10.5386
▁sur	-10.5386
my	-10.5395
▁tal	-10.5395
▁hal	-10.5399
▁indie	-10.5408
95	-10.5415
▁fifteen	-10.5416
▁soundtrack	-10.5416
▁evening	-10.5416
▁1892	-10.5418
▁thing	-10.542
▁ol	-10.5423
▁argu	-10.5436
▁adventure	-10.5436
▁cricket	-10.5441
▁uranus	-10.5443
▁sponsor	-10.5443
▁boundaries	-10.5444
▁houston	-10.5444
▁giovanni	-10.5445
tal	-10.5452
▁lowest	-10.5455
▁serbia	-10.5457
31	-10.5457
▁mall	-10.5463
▁genera	-10.5464
▁conquer	-10.5467
▁shire	-10.5468
▁thailand	-10.5472
▁theorem	-10.5472
▁patient	-10.5473
▁1882	-10.5473
▁1899	-10.5475
▁comics	-10.548
▁combat	-10.5487
▁leo	-10.5488
▁define	-10.5488
▁inventor	-10.5492
▁portray	-10.5493
▁bark	-10.5493
▁afterward	-10.5493
▁dwarf	-10.5499
▁austen	-10.55
▁execution	-10.55
▁gustav	-10.55
▁lin	-10.5502
style	-10.5503
▁views	-10.5509
▁sword	-10.552
▁java	-10.5523
▁hercules	-10.5527
▁66	-10.5527
▁marco	-10.5536
▁expos	-10.5537
ning	-10.5537
.9	-10.5541
▁ju	-10.5542
▁lang	-10.5544
65	-10.5544
37	-10.5546
▁sta	-10.5548
ven	-10.555
▁dioxide	-10.5555
▁shakespeare	-10.5557
▁modifi	-10.556
▁zeus	-10.5564
89	-10.5566
▁cena	-10.5566
▁plus	-10.5567
72	-10.5567
tor	-10.5578
▁ip	-10.5579
▁opponent	-10.5583
▁recognition	-10.5583
▁rico	-10.5585
▁passengers	-10.5588
▁dj	-10.5593
▁personality	-10.5593
41	-10.5597
cat	-10.5602
tes	-10.5602
▁suc	-10.5604
▁dave	-10.5605
▁mechanics	-10.5606
▁massacre	-10.5611
▁trading	-10.5611
xi	-10.5612
▁1881	-10.5614
▁powder	-10.5616
▁indicate	-10.5622
▁bin	-10.5626
ex	-10.563
78	-10.563
▁mask	-10.5632
▁jar	-10.564
▁feel	-10.564
▁rebellion	-10.5641
▁positions	-10.5641
▁bce	-10.5641
▁1896	-10.5642
▁1879	-10.5642
▁sustain	-10.5645
▁specializ	-10.5648
48	-10.5648
▁cam	-10.5658
▁pack	-10.5661
▁spiritual	-10.5664
des	-10.5664
▁disaster	-10.5667
▁log	-10.5668
▁guy	-10.5668
▁details	-10.5671
▁collapse	-10.5674
▁react	-10.5674
ee	-10.5682
47	-10.5682
▁statesman	-10.5683
▁villa	-10.5688
▁colour	-10.569
▁ivan	-10.5695
▁archbishop	-10.5696
▁revolutionar	-10.5696
▁molecular	-10.5697
▁span	-10.5698
▁needs	-10.5701
▁window	-10.5702
pin	-10.5705
▁grass	-10.5711
▁connecticut	-10.5724
▁serial	-10.5725
▁miami	-10.5725
▁showing	-10.5726
▁protocol	-10.5729
▁vision	-10.5732
▁highland	-10.5733
▁standards	-10.5734
▁alex	-10.5739
▁pearl	-10.5742
33	-10.5748
▁heavily	-10.5753
▁rainfall	-10.5753
▁celtic	-10.5753
▁gift	-10.5755
▁neith	-10.5758
▁trace	-10.5761
▁oliver	-10.5762
▁productions	-10.5764
84	-10.5766
▁fundamental	-10.5777
▁1867	-10.5785
▁soldier	-10.5791
▁hi	-10.5793
▁49	-10.5801
71	-10.5803
▁democrat	-10.5806
▁aim	-10.5808
din	-10.5808
▁surrender	-10.581
▁tunnel	-10.5812
▁database	-10.5813
▁bla	-10.5813
▁trek	-10.5816
end	-10.5819
▁transition	-10.5822
gin	-10.5824
▁limit	-10.583
▁jacob	-10.5837
▁jerry	-10.5839
▁1893	-10.5842
▁mel	-10.5842
▁gone	-10.5844
▁nova	-10.5847
▁neo	-10.5847
75	-10.5855
▁res	-10.5863
▁civilian	-10.5864
▁baltimore	-10.5867
▁presidency	-10.5868
▁trail	-10.5868
▁patent	-10.5868
type	-10.5872
mark	-10.5873
▁hell	-10.5873
▁pie	-10.5875
76	-10.5876
hn	-10.5877
▁doctrine	-10.5879
▁napoleon	-10.5892
lia	-10.5896
▁google	-10.5896
▁arnold	-10.5896
▁lightning	-10.5899
▁cartoon	-10.5903
▁maple	-10.5904
eur	-10.5907
▁leads	-10.591
▁lifetime	-10.5911
▁improve	-10.5921
▁remove	-10.5933
▁axis	-10.5935
▁bag	-10.5947
▁manner	-10.5951
▁romanian	-10.5953
.6	-10.5954
▁baden	-10.5955
▁tie	-10.5955
oid	-10.5956
▁purple	-10.5956
▁qu	-10.5957
▁ky	-10.5959
▁sat	-10.597
▁arrang	-10.5972
▁severe	-10.5974
ski	-10.5974
▁bath	-10.5977
▁archipelago	-10.5983
▁rhinewestphalia	-10.5983
▁vampire	-10.5983
▁encounter	-10.5983
▁cleveland	-10.5984
▁declaration	-10.5984
▁random	-10.5984
▁queensland	-10.5985
▁iranian	-10.5989
ii	-10.5995
▁georg	-10.6
▁54	-10.6005
▁graduate	-10.6009
▁discuss	-10.6009
nor	-10.6011
▁none	-10.6012
▁shar	-10.6014
▁seed	-10.6018
ble	-10.6018
▁percy	-10.6021
▁pul	-10.6024
enberg	-10.6027
▁bur	-10.6027
▁360	-10.6033
▁physician	-10.6042
▁export	-10.6043
▁bern	-10.6047
▁bones	-10.6048
hr	-10.6051
gy	-10.6059
▁dispute	-10.6061
▁saints	-10.6066
ious	-10.6066
▁lesser	-10.607
▁molecules	-10.6072
▁dangerous	-10.6072
▁threat	-10.6079
▁norse	-10.6082
ore	-10.6083
▁ultra	-10.6084
▁orton	-10.6091
elli	-10.6099
52	-10.61
▁sultan	-10.6101
▁geometry	-10.6101
▁telescope	-10.6101
▁conservation	-10.6101
▁spice	-10.6103
▁broadcasting	-10.6106
▁emergency	-10.6108
og	-10.6115
▁rna	-10.6121
▁rhine	-10.6122
▁routes	-10.6127
▁transform	-10.6128
▁russell	-10.6131
▁increasing	-10.6132
▁maryland	-10.6132
▁automatic	-10.6133
▁administer	-10.6133
ama	-10.6134
▁eagle	-10.6145
▁supporter	-10.6146
▁yoshi	-10.6147
nic	-10.6152
▁approv	-10.6153
▁duck	-10.6159
▁agricultural	-10.616
▁jpg	-10.616
▁ski	-10.6165
▁peru	-10.6169
▁otto	-10.6169
▁flying	-10.6173
▁ranging	-10.6178
▁vo	-10.6182
74	-10.6187
pr	-10.6188
▁ranges	-10.6188
▁amazon	-10.619
▁easy	-10.619
▁nelson	-10.6191
▁bestknown	-10.6191
▁sk	-10.6191
▁circulation	-10.6191
▁mainstream	-10.6192
2006	-10.6193
▁jacques	-10.6197
▁cake	-10.6198
▁finance	-10.6204
▁constitutional	-10.621
▁serie	-10.6214
▁faster	-10.6216
▁documents	-10.6216
▁amsterdam	-10.622
▁plural	-10.622
▁housing	-10.622
cho	-10.6223
▁syria	-10.6224
▁ron	-10.6227
oc	-10.6229
▁observator	-10.623
mm	-10.6239
▁contribut	-10.6245
▁jonathan	-10.625
▁progressive	-10.6251
▁acclaim	-10.6251
▁gordon	-10.6253
▁descendant	-10.6254
maritime	-10.6255
▁eccentricit	-10.6255
board	-10.6272
▁looking	-10.6274
▁spider	-10.6277
▁brooklyn	-10.628
▁violence	-10.628
▁bigger	-10.6283
▁establishment	-10.629
▁frequency	-10.629
▁mrs	-10.6293
▁1894	-10.6302
▁roosevelt	-10.631
▁athens	-10.6312
▁reward	-10.6315
burn	-10.6319
▁phase	-10.632
▁cult	-10.6321
▁advisor	-10.6322
ense	-10.6323
▁kw	-10.6325
▁phil	-10.6327
▁10000	-10.6327
ware	-10.633
▁lane	-10.6335
▁actions	-10.6341
▁argument	-10.6341
▁butter	-10.6343
▁phone	-10.6347
79	-10.6358
▁cardinal	-10.636
▁dialect	-10.636
sis	-10.636
▁72	-10.636
abad	-10.6365
▁rival	-10.6366
▁deposit	-10.637
43	-10.6373
▁herself	-10.6374
bb	-10.638
▁hesse	-10.6386
rio	-10.6389
▁odd	-10.639
▁electron	-10.6391
▁capabl	-10.6391
▁romans	-10.6394
zy	-10.6395
▁sung	-10.64
▁playoffs	-10.64
▁currency	-10.6401
▁gen	-10.6402
▁whedon	-10.6402
▁ports	-10.6403
▁nbc	-10.6403
▁damaged	-10.6407
▁pakistani	-10.6407
▁refused	-10.6409
court	-10.6415
64	-10.6419
▁resolution	-10.6431
▁please	-10.6432
▁collective	-10.6433
▁injury	-10.6438
▁stick	-10.6439
gra	-10.644
sha	-10.6444
▁sr	-10.6444
▁adding	-10.645
▁siege	-10.645
▁artistic	-10.6455
ris	-10.6456
▁gabriel	-10.6457
▁alcohol	-10.6458
▁portrait	-10.6462
▁administrator	-10.6462
▁beauty	-10.6462
tus	-10.6469
nny	-10.6472
▁kiss	-10.6473
▁cl	-10.6476
qui	-10.6477
▁strike	-10.648
sk	-10.6481
▁beliefs	-10.6481
▁patron	-10.6487
▁overseas	-10.6492
▁dy	-10.6494
▁oscar	-10.6494
▁ty	-10.6495
ert	-10.6495
▁plains	-10.6496
▁index	-10.6496
▁bears	-10.6498
ball	-10.65
▁5000	-10.6505
▁texts	-10.651
km	-10.6511
68	-10.6511
bridge	-10.6516
person	-10.6518
▁implement	-10.6521
▁ludwig	-10.6523
▁arrangement	-10.6523
▁cyclones	-10.6523
▁utah	-10.6524
▁signs	-10.6536
▁drawing	-10.6546
▁populo	-10.6549
▁jaw	-10.6549
▁spin	-10.655
▁mali	-10.6553
▁steven	-10.6555
pu	-10.6556
▁statue	-10.6558
▁reef	-10.6563
▁artificial	-10.6565
▁frame	-10.6566
▁draw	-10.6567
▁convict	-10.6575
▁teen	-10.6578
▁ecliptic	-10.6585
▁frankfurt	-10.6585
▁avenue	-10.6585
▁stewart	-10.6585
▁railroad	-10.6585
▁dissolv	-10.6588
var	-10.6589
▁corn	-10.659
94	-10.659
83	-10.6595
▁renown	-10.6596
63	-10.6606
▁leeds	-10.661
▁criminal	-10.661
▁beside	-10.661
▁dc	-10.6611
▁tel	-10.6614
▁enemy	-10.6616
▁mini	-10.662
▁nest	-10.662
▁edit	-10.6623
tri	-10.6624
▁codes	-10.6626
▁fra	-10.6634
▁chose	-10.6636
▁56	-10.6636
▁gran	-10.6643
▁bouchesdurh	-10.6647
tel	-10.6648
van	-10.6649
ag	-10.6649
▁1878	-10.6651
▁regularly	-10.6652
▁anyone	-10.6654
▁dancer	-10.6661
▁really	-10.6663
▁killer	-10.6666
▁3000	-10.6674
▁progress	-10.6674
▁defensive	-10.6678
▁subspecies	-10.6678
▁coalition	-10.6679
▁ninth	-10.6679
▁defence	-10.6679
56	-10.668
▁intensit	-10.668
▁franco	-10.6681
▁birthday	-10.6682
▁allied	-10.6686
▁repeated	-10.6688
▁ds	-10.6695
▁ji	-10.6697
▁ok	-10.6701
uv	-10.6707
▁53	-10.6709
physiology	-10.6711
our	-10.6713
▁pap	-10.6715
▁atom	-10.6716
▁resemble	-10.6719
▁educational	-10.6719
▁factory	-10.6721
▁programme	-10.6723
▁orders	-10.6724
▁sto	-10.6727
▁roads	-10.6728
▁golf	-10.6732
▁ghost	-10.6741
▁emmy	-10.6742
▁ernst	-10.6742
▁estate	-10.6744
▁tuscany	-10.6747
▁fossils	-10.6747
2003	-10.6749
▁atoms	-10.6751
▁scoring	-10.6752
rk	-10.6762
pan	-10.6767
val	-10.6768
▁airline	-10.6769
▁interface	-10.6773
▁driv	-10.6775
▁martial	-10.6776
▁holland	-10.6777
▁accus	-10.6778
▁cultures	-10.6779
▁rising	-10.678
▁lock	-10.678
2007	-10.6781
▁stages	-10.6783
▁understanding	-10.6791
▁decline	-10.6796
lla	-10.6801
▁answer	-10.6804
▁pizza	-10.6804
▁abolish	-10.6804
▁gilbert	-10.6805
▁crossing	-10.6806
▁writings	-10.6807
▁documentary	-10.6807
▁forbes	-10.6811
▁2.5	-10.6813
zer	-10.6816
▁doing	-10.6818
▁malaysia	-10.6821
▁till	-10.6823
led	-10.6836
▁entrance	-10.6836
▁winners	-10.6839
dr	-10.684
point	-10.6842
▁authors	-10.6843
▁hind	-10.6844
cin	-10.6847
over	-10.6851
▁releases	-10.6851
▁anton	-10.6857
▁deputy	-10.6868
▁sculpture	-10.6868
▁residence	-10.6868
▁backing	-10.687
pt	-10.6874
97	-10.6874
▁divide	-10.6877
ids	-10.6877
▁clothes	-10.6877
▁bou	-10.688
▁ober	-10.6881
▁1500	-10.6881
▁belonging	-10.6885
▁1.5	-10.6887
▁whit	-10.689
▁pont	-10.6897
▁anglican	-10.69
▁anything	-10.6901
▁1876	-10.6904
eava	-10.6904
▁52	-10.6904
▁1888	-10.6904
▁polar	-10.6905
▁recognize	-10.6906
▁survived	-10.6907
▁harvest	-10.691
▁township	-10.6912
▁pu	-10.6914
▁minute	-10.6916
ight	-10.6916
▁divisions	-10.6918
upon	-10.6918
kar	-10.6924
▁assist	-10.6928
▁witch	-10.693
▁engage	-10.6931
▁revolt	-10.6932
▁sudden	-10.6932
▁wcw	-10.6932
▁pocket	-10.6933
▁rap	-10.6934
▁discussion	-10.6936
▁organis	-10.6937
▁alien	-10.6942
▁tenth	-10.6948
▁heir	-10.6954
▁crowd	-10.6955
▁apply	-10.6958
▁restrict	-10.696
▁stable	-10.6963
▁desktop	-10.6964
▁destruction	-10.6964
▁renault	-10.6964
▁ov	-10.6966
54	-10.6968
cal	-10.6972
▁pump	-10.6993
▁ag	-10.6996
▁madison	-10.6997
▁skating	-10.6997
▁session	-10.7
▁component	-10.7
▁por	-10.7002
nia	-10.7005
▁representation	-10.7007
▁canadiens	-10.7009
▁attempts	-10.7011
▁tourism	-10.7013
▁drawn	-10.7019
▁protected	-10.702
▁marks	-10.7022
▁logo	-10.7024
ingen	-10.7029
ale	-10.7029
▁vector	-10.7029
▁employee	-10.7031
▁kane	-10.7035
▁archive	-10.7041
stra	-10.7048
50	-10.7048
▁educat	-10.7049
▁hamburg	-10.7055
set	-10.7058
▁controversial	-10.7061
▁breast	-10.7061
▁spinoff	-10.7062
▁spectrum	-10.7062
▁jimmy	-10.7062
▁depth	-10.7063
▁usb	-10.7063
▁derby	-10.7063
▁fertil	-10.7064
▁morgan	-10.7067
▁cy	-10.7069
▁laid	-10.7069
▁sounds	-10.7076
▁sonic	-10.7079
▁1887	-10.7083
▁slovakia	-10.7084
▁shop	-10.7085
▁barry	-10.7085
ep	-10.7085
▁immunit	-10.7086
03	-10.7092
▁thompson	-10.7094
▁donald	-10.7094
▁dancing	-10.7094
▁neighborhood	-10.7094
▁grammar	-10.7094
▁gravity	-10.7095
hausen	-10.7096
▁1897	-10.7097
▁monument	-10.7099
▁movements	-10.7106
▁subjects	-10.7107
▁falling	-10.7109
▁char	-10.711
▁hol	-10.711
▁1830	-10.7114
▁teach	-10.7118
▁components	-10.7123
▁trio	-10.7123
▁concerto	-10.7125
▁legislature	-10.7127
▁structural	-10.7127
ava	-10.7128
▁breed	-10.7129
▁rhne	-10.7129
▁signature	-10.7133
▁rick	-10.7137
▁wet	-10.714
▁boxing	-10.7141
▁cancel	-10.7143
▁streets	-10.7154
▁clark	-10.7157
▁controversy	-10.7159
▁factors	-10.7161
▁achieve	-10.7168
▁adults	-10.7171
▁secure	-10.7173
lock	-10.7176
▁partly	-10.7176
▁qui	-10.7176
▁gp	-10.7179
gli	-10.7179
▁kar	-10.718
▁hu	-10.7181
▁rocket	-10.7182
▁blow	-10.7186
▁solothurn	-10.7192
▁guerrero	-10.7192
▁appeal	-10.7193
▁dublin	-10.7193
▁calls	-10.7201
▁communications	-10.7202
55	-10.7204
ret	-10.7207
▁accounts	-10.7207
ries	-10.7209
mas	-10.7209
▁offices	-10.7212
▁sections	-10.7212
▁transit	-10.7215
▁rings	-10.7221
▁decorat	-10.7223
▁val	-10.7225
▁terminal	-10.7225
▁parks	-10.7227
▁brabant	-10.7227
▁jason	-10.7229
▁tan	-10.723
▁ronald	-10.7231
▁restaurant	-10.7234
▁batist	-10.7236
▁electrons	-10.7236
▁herbert	-10.7239
▁simpsons	-10.7241
gate	-10.7253
▁tributar	-10.7255
▁neighbour	-10.7258
▁specimen	-10.7258
▁opinion	-10.7258
▁recipe	-10.7258
▁triangle	-10.7258
▁hunting	-10.7259
▁altitude	-10.726
▁geographic	-10.7284
▁indigenous	-10.7292
▁vessel	-10.7292
▁subdivided	-10.7292
▁pokmon	-10.7292
▁identical	-10.7293
▁domain	-10.7295
▁editors	-10.7304
▁sim	-10.7305
▁protein	-10.7305
53	-10.7309
▁publisher	-10.7309
yle	-10.7313
▁provincial	-10.7315
confused	-10.7318
▁networks	-10.732
▁categories	-10.7325
▁actors	-10.7326
▁roof	-10.7327
▁mental	-10.7329
▁habitat	-10.7333
▁obe	-10.7333
ovich	-10.7335
▁monarchy	-10.7335
▁bre	-10.7345
▁else	-10.7349
▁fl	-10.7353
▁observations	-10.7354
▁mongol	-10.7354
▁descend	-10.7354
▁sha	-10.7354
▁ll	-10.7356
▁passe	-10.7358
▁junction	-10.7358
▁julius	-10.7359
▁dominant	-10.736
▁worst	-10.7361
▁moth	-10.7363
dom	-10.7366
▁truth	-10.7372
▁lineup	-10.7373
▁easie	-10.7378
▁1850	-10.7379
▁grounds	-10.738
ammu	-10.7382
book	-10.7391
fe	-10.7391
▁venice	-10.7392
▁stored	-10.7394
▁1885	-10.7396
▁poison	-10.7397
cus	-10.7398
▁smooth	-10.7404
▁automobile	-10.7407
▁tang	-10.741
96	-10.7411
▁tales	-10.7412
▁drum	-10.7415
▁newton	-10.7417
▁cole	-10.7419
▁truck	-10.7425
▁hampshire	-10.7426
▁smash	-10.7426
▁weekend	-10.7426
▁castile	-10.7426
▁rope	-10.743
▁800	-10.7432
▁sporting	-10.7433
▁luck	-10.7433
▁dust	-10.7435
▁calling	-10.744
▁persons	-10.7445
92	-10.7451
.0	-10.7453
▁claudi	-10.7455
pre	-10.7456
▁mono	-10.7458
▁dakota	-10.7459
▁mozart	-10.7459
▁dish	-10.7462
▁francesco	-10.7462
▁turns	-10.7464
heim	-10.7466
▁variations	-10.748
▁drugs	-10.7489
▁purchas	-10.7491
▁imprison	-10.7493
▁stuart	-10.7493
▁oregon	-10.7493
▁braille	-10.7494
▁keys	-10.7494
▁operas	-10.7494
work	-10.7501
▁ltd	-10.7503
what	-10.7505
rie	-10.7505
▁nasa	-10.7507
▁crusade	-10.7509
▁ryan	-10.7514
2005	-10.7516
▁exactly	-10.7519
▁ter	-10.752
▁foods	-10.7522
▁chemist	-10.7526
▁chromosome	-10.7527
▁dun	-10.7527
▁cattle	-10.7528
▁false	-10.7528
▁caught	-10.754
▁arrival	-10.754
62	-10.7545
▁fin	-10.755
▁arabia	-10.7552
▁taste	-10.7553
wi	-10.7558
▁leipzig	-10.7561
▁mutual	-10.7561
▁landscape	-10.7562
▁societies	-10.7562
▁mes	-10.7564
▁lists	-10.7565
▁1886	-10.7568
▁exclusive	-10.7569
▁runner	-10.7569
aw	-10.7571
▁traditions	-10.7572
▁looks	-10.7574
▁augustus	-10.7577
66	-10.758
▁mil	-10.7586
ban	-10.7588
▁potassium	-10.7596
wide	-10.7596
▁ticket	-10.7597
▁spacecraft	-10.7597
▁dramatic	-10.7599
▁recover	-10.76
▁kur	-10.7607
▁tissue	-10.7613
▁adaptation	-10.7616
▁generat	-10.7619
▁98	-10.7619
coming	-10.7625
▁liver	-10.7627
▁illegal	-10.763
▁cotton	-10.763
▁basilica	-10.7631
▁melt	-10.7641
elle	-10.7644
▁kl	-10.7646
▁plann	-10.7647
▁dick	-10.765
ridge	-10.7652
▁wants	-10.7654
bre	-10.7654
▁bits	-10.7657
▁louise	-10.7657
▁81	-10.7657
▁simpson	-10.7657
▁berkeley	-10.7665
▁janeiro	-10.7665
▁dallas	-10.7665
▁ann	-10.7668
▁files	-10.7672
▁kan	-10.7679
fr	-10.7683
▁citizen	-10.7683
▁abu	-10.7685
▁dot	-10.7689
▁romance	-10.7693
▁volcano	-10.7701
▁elevation	-10.7701
dar	-10.7702
▁dean	-10.7704
▁lift	-10.7706
▁piper	-10.7713
lis	-10.7717
▁sole	-10.7717
▁lithuania	-10.7719
▁balls	-10.7719
▁tiger	-10.7722
▁armor	-10.7732
▁glen	-10.7734
▁nevada	-10.7734
tin	-10.7738
▁plateau	-10.7739
▁penis	-10.7742
ldest	-10.7753
▁particle	-10.7756
▁fir	-10.7763
▁alp	-10.7764
▁filled	-10.7767
▁brad	-10.7767
▁harvard	-10.7769
▁mcmahon	-10.7769
▁thames	-10.7769
▁tongue	-10.7769
▁atlantique	-10.7776
called	-10.7776
▁balance	-10.7783
use	-10.7789
▁characteristic	-10.7794
▁santo	-10.7799
▁ernest	-10.78
olithic	-10.7803
▁buddhist	-10.7804
▁irregular	-10.7804
▁investigation	-10.7805
▁admiral	-10.7806
▁expert	-10.7806
▁everyone	-10.7807
shape	-10.7811
▁associate	-10.7812
eng	-10.7813
star	-10.7814
▁provisional	-10.7821
▁estimates	-10.7824
▁preserv	-10.7827
▁retrogr	-10.7828
▁usd	-10.7831
mir	-10.7834
▁predict	-10.7839
▁immigrant	-10.7839
▁nuremberg	-10.7839
▁facult	-10.7839
ado	-10.7844
state	-10.7845
▁silk	-10.7849
dra	-10.7856
▁grade	-10.7857
▁leaf	-10.7863
▁olive	-10.7863
▁suicide	-10.7874
▁orleans	-10.7874
▁convection	-10.7875
▁columbus	-10.7876
▁boot	-10.7876
▁distinctive	-10.7877
▁1848	-10.7879
▁proclaim	-10.788
▁spend	-10.7884
▁allstar	-10.7884
500	-10.7888
▁geographical	-10.7888
▁cash	-10.7889
▁slide	-10.789
▁kids	-10.7897
▁jay	-10.7902
▁harris	-10.7903
61	-10.7904
▁74	-10.7905
▁dies	-10.7907
▁editing	-10.7909
▁luxembourg	-10.7909
▁mirror	-10.7909
▁psychology	-10.7909
▁strict	-10.7909
▁naples	-10.791
▁suit	-10.7911
▁1883	-10.7913
▁600	-10.7914
▁raise	-10.7916
▁mat	-10.7917
▁parliamentary	-10.7917
▁pier	-10.7918
▁distinction	-10.7918
▁130	-10.7918
▁wal	-10.7932
▁epic	-10.7935
▁bid	-10.7935
▁finger	-10.7939
▁confederation	-10.7945
▁mechanism	-10.7945
▁merchant	-10.7945
▁suffolk	-10.7945
▁governments	-10.7946
▁dollars	-10.7947
▁improv	-10.7952
eaten	-10.7956
▁crab	-10.7958
▁rc	-10.7963
▁varie	-10.797
uf	-10.7973
▁vale	-10.7977
▁whale	-10.7978
atic	-10.7979
91	-10.798
▁reputation	-10.798
▁happy	-10.798
▁laureate	-10.798
▁thermal	-10.7981
▁rubber	-10.7985
▁optical	-10.7987
▁harm	-10.7991
▁joan	-10.7996
mal	-10.8004
▁indus	-10.8005
▁fi	-10.801
▁tasmania	-10.8011
▁scout	-10.8011
▁buddhism	-10.8016
▁ukrainian	-10.8016
▁wrong	-10.8016
▁attain	-10.8016
▁symbols	-10.8018
wick	-10.802
▁cache	-10.8023
▁77	-10.8025
▁aspects	-10.8028
2001	-10.8032
▁armies	-10.8032
▁xi	-10.8039
▁tries	-10.804
▁sad	-10.8041
▁carbonate	-10.8042
▁subsidiar	-10.8047
▁68	-10.805
▁nervous	-10.8052
▁replacement	-10.8055
▁fastest	-10.8056
▁robin	-10.8057
▁easter	-10.8058
▁brun	-10.8058
qua	-10.8058
horn	-10.806
▁antarctica	-10.807
▁strongly	-10.8076
▁sixteen	-10.8077
▁pur	-10.8079
▁sony	-10.8079
gh	-10.808
▁gill	-10.8085
▁task	-10.8085
▁ideal	-10.8087
▁alternate	-10.8088
▁richmond	-10.8088
▁radical	-10.8088
▁vincent	-10.8089
▁shi	-10.809
▁interaction	-10.809
nk	-10.8091
▁idol	-10.8091
▁1862	-10.8091
▁utc	-10.8094
▁exile	-10.8097
truck	-10.8099
▁barbara	-10.8099
largest	-10.8099
tur	-10.81
2002	-10.8101
▁struggle	-10.8103
▁hy	-10.8105
▁hurricanes	-10.8107
▁croatia	-10.811
▁finding	-10.8114
▁riding	-10.8122
▁skull	-10.8124
▁prades	-10.8125
▁abc	-10.8125
▁rapper	-10.8126
▁murray	-10.8126
▁gil	-10.8126
▁luke	-10.8126
▁tibetan	-10.8128
▁buffy	-10.8137
▁fran	-10.8137
▁mir	-10.8137
ative	-10.8139
▁ir	-10.8142
▁critic	-10.8151
▁basil	-10.8152
▁symptoms	-10.8152
▁manufacturing	-10.816
▁campbell	-10.8161
▁yo	-10.8161
lar	-10.8162
▁honey	-10.8163
uck	-10.8164
▁loud	-10.8168
▁horizontal	-10.8168
▁missing	-10.817
bro	-10.8171
▁mention	-10.8177
▁lab	-10.8181
▁blade	-10.8187
▁wayne	-10.8193
mel	-10.8195
▁absolute	-10.8197
▁shelter	-10.8197
▁apollo	-10.8197
▁sulfur	-10.8197
▁thunder	-10.8197
▁stockholm	-10.8197
▁reproduction	-10.8197
▁preparation	-10.8198
▁israeli	-10.82
▁cameron	-10.8202
▁johnny	-10.8204
▁tam	-10.8205
wall	-10.8206
▁isolat	-10.8209
ib	-10.821
hen	-10.8218
▁load	-10.8226
▁anniversar	-10.8233
▁remote	-10.8233
▁norfolk	-10.8233
▁retirement	-10.8233
▁compilation	-10.8234
▁slavic	-10.8235
▁terry	-10.8235
▁petersburg	-10.8235
▁id	-10.8238
▁premiere	-10.824
pl	-10.8244
▁promise	-10.8246
▁resident	-10.8247
▁tape	-10.8248
▁beyonc	-10.8248
▁spann	-10.8249
▁costa	-10.8255
▁ravens	-10.8259
▁midlands	-10.8261
▁nazis	-10.8262
▁predators	-10.8266
▁aberdeen	-10.8269
▁newfoundland	-10.827
▁trinity	-10.827
▁hidden	-10.827
▁vince	-10.8271
ort	-10.8271
▁shoot	-10.8272
▁legendar	-10.8273
▁tale	-10.8273
▁chloride	-10.8274
▁courts	-10.8277
▁100000	-10.8277
▁yugoslavia	-10.8279
▁proof	-10.8279
▁vast	-10.8283
▁tsu	-10.8287
gr	-10.8288
▁pipe	-10.8298
▁incident	-10.83
▁prepared	-10.8305
▁decay	-10.8307
▁rebel	-10.8307
▁playwright	-10.8307
ensis	-10.8314
▁rear	-10.8316
▁warren	-10.8318
02	-10.8319
▁flooding	-10.8319
tar	-10.8325
▁lap	-10.8327
cia	-10.8329
▁pal	-10.8331
.8	-10.8335
▁legislati	-10.8336
▁cello	-10.8337
▁fisher	-10.834
▁disorder	-10.8342
rum	-10.8343
▁atmospheric	-10.8343
▁remnant	-10.8343
▁heinrich	-10.8343
▁knowles	-10.8346
ique	-10.8364
▁minerals	-10.8364
len	-10.8365
▁atlas	-10.8366
hor	-10.8374
▁ferr	-10.8377
▁berg	-10.8378
▁policies	-10.838
▁thursday	-10.838
▁thuringia	-10.8381
oni	-10.8381
▁intense	-10.8381
▁designs	-10.8382
▁purchase	-10.8382
▁leonese	-10.8385
▁frs	-10.8388
▁immun	-10.839
▁08	-10.8396
▁closer	-10.8399
ello	-10.8402
rumble	-10.8403
▁experiments	-10.8405
▁awardwinn	-10.8411
rin	-10.8414
▁businessman	-10.8414
▁fighter	-10.8416
▁forecast	-10.8417
▁unesco	-10.8418
▁patterns	-10.842
▁constituency	-10.8421
▁1863	-10.8421
▁celebrate	-10.8422
▁happens	-10.8429
▁grain	-10.843
▁62	-10.8433
▁croatian	-10.8435
▁antarctic	-10.8436
ira	-10.8438
▁serbian	-10.8438
▁hosts	-10.8443
▁ser	-10.8446
▁wider	-10.845
▁exhibit	-10.8451
▁beetle	-10.8455
▁knew	-10.8457
▁carrie	-10.8461
▁mice	-10.8464
▁lose	-10.8467
aki	-10.8469
▁deer	-10.8473
▁verb	-10.8475
ska	-10.8478
▁wooden	-10.8478
▁mah	-10.8481
▁exclusively	-10.8486
▁devil	-10.8486
stadt	-10.8488
illo	-10.8488
▁fernand	-10.849
▁recommend	-10.849
▁citrus	-10.8492
▁expensive	-10.8492
▁avatar	-10.8492
▁beijing	-10.8493
▁saudi	-10.8493
▁viking	-10.8494
▁algorithm	-10.8494
▁eli	-10.8496
▁downtown	-10.8498
lain	-10.85
game	-10.85
ducted	-10.8503
▁exact	-10.8504
▁hyper	-10.8509
▁180	-10.8514
▁camps	-10.8516
▁hydro	-10.8518
▁ratio	-10.8519
having	-10.8521
▁signals	-10.8522
pop	-10.8527
ben	-10.8528
▁cretaceous	-10.853
▁offensive	-10.853
▁adjac	-10.853
▁keyboard	-10.8533
▁poly	-10.8534
▁monster	-10.8535
▁toxic	-10.8536
▁jenn	-10.8538
▁feeling	-10.8538
▁nile	-10.854
weight	-10.8542
ova	-10.8544
▁questions	-10.8551
▁cord	-10.8554
▁sheet	-10.8556
stan	-10.8557
eau	-10.8557
▁lover	-10.8558
▁kal	-10.8559
king	-10.8564
▁consecutive	-10.8568
▁salzburg	-10.8568
▁compact	-10.8569
▁acoustic	-10.8571
▁profile	-10.8571
▁principles	-10.8571
▁daughters	-10.8571
▁notation	-10.8571
▁heading	-10.8573
made	-10.8573
▁fil	-10.8575
▁gregory	-10.8576
▁loan	-10.8576
▁cbs	-10.8585
▁canon	-10.8588
▁sol	-10.8588
saint	-10.8589
▁69	-10.8605
▁substantial	-10.8606
▁extent	-10.8606
▁vende	-10.8606
▁1877	-10.861
▁dawn	-10.8611
▁taka	-10.8615
▁possess	-10.8615
▁hume	-10.8618
▁shall	-10.8622
▁abandoned	-10.8623
▁kick	-10.863
▁110	-10.8633
▁restaurants	-10.8634
▁messages	-10.8635
▁vary	-10.8637
▁coup	-10.8639
▁mammal	-10.864
▁sussex	-10.8644
▁sicily	-10.8644
▁parameter	-10.8644
▁div	-10.8644
▁trilogy	-10.8644
▁binary	-10.8645
▁shin	-10.8646
▁1840	-10.865
▁zi	-10.865
▁est	-10.865
▁geological	-10.8651
▁anderson	-10.8653
▁delay	-10.8656
▁mit	-10.8657
▁59	-10.8666
ero	-10.8667
▁handle	-10.8667
bird	-10.867
▁schedul	-10.8679
▁adolf	-10.8682
▁tsar	-10.8683
▁chicken	-10.8684
▁possession	-10.8685
▁batman	-10.8687
▁mccartney	-10.8688
▁wei	-10.8688
▁weapon	-10.8688
▁aut	-10.8689
▁quartet	-10.8691
▁clan	-10.8705
▁ibn	-10.8708
▁generations	-10.8716
▁wake	-10.8719
▁integrat	-10.872
▁sector	-10.8724
▁internationally	-10.8725
ain	-10.8729
▁1859	-10.873
▁ry	-10.8733
▁susan	-10.8734
sson	-10.8735
▁emirates	-10.8745
▁coins	-10.8745
▁ride	-10.8748
lio	-10.8749
itzer	-10.8754
▁ceremonial	-10.8758
▁democracy	-10.8758
▁terrestrial	-10.8758
▁eddie	-10.8759
▁sitcom	-10.876
gie	-10.8761
▁1874	-10.8763
▁1872	-10.8763
▁leon	-10.8766
▁usual	-10.8769
▁lou	-10.8777
ky	-10.8777
▁hp	-10.8779
▁bel	-10.878
▁colleges	-10.8781
▁ordinar	-10.8785
▁happen	-10.8786
▁scales	-10.8795
▁1852	-10.8797
▁galaxy	-10.8797
▁bottle	-10.8797
term	-10.8801
▁instant	-10.8805
▁rating	-10.8807
▁ap	-10.8813
▁topic	-10.8815
▁flora	-10.8828
▁winger	-10.8834
▁herb	-10.8835
▁abuse	-10.8835
▁sierra	-10.8836
zen	-10.884
▁marry	-10.8842
nan	-10.885
▁alt	-10.8858
▁chad	-10.8861
▁96	-10.8869
▁silva	-10.8869
▁sure	-10.887
ante	-10.8871
▁carlo	-10.8873
▁je	-10.8875
▁remix	-10.8875
▁servant	-10.8875
▁cultivat	-10.8876
▁kirk	-10.8881
▁latest	-10.8882
51	-10.8883
▁lanka	-10.8884
▁wright	-10.8884
▁plates	-10.8888
nik	-10.8895
zu	-10.8896
▁bulgaria	-10.8899
far	-10.8901
▁extract	-10.8904
low	-10.8907
▁71	-10.8908
▁predecessor	-10.8914
▁apostle	-10.8914
▁charlie	-10.8915
▁sul	-10.8916
▁fortress	-10.8917
oon	-10.8919
▁hearts	-10.892
▁jobs	-10.892
rn	-10.8922
▁combine	-10.8923
▁eve	-10.8924
▁supposed	-10.8927
par	-10.8941
▁attacking	-10.8947
ij	-10.895
smith	-10.895
▁hunter	-10.8953
▁ralph	-10.8953
▁alexandria	-10.8953
▁fre	-10.8955
▁aires	-10.8957
▁maps	-10.8961
▁nu	-10.8961
▁mere	-10.8967
▁hugh	-10.8968
▁populat	-10.8972
▁emerged	-10.8973
▁maker	-10.8973
oka	-10.8977
▁88	-10.8986
▁experimental	-10.8988
▁oceans	-10.8988
▁gap	-10.8989
▁disappear	-10.8992
▁transmission	-10.8992
▁predominant	-10.8992
▁bueno	-10.8993
▁isaac	-10.8993
▁organisation	-10.8996
58	-10.8996
▁instrumental	-10.8998
hand	-10.9
▁wheat	-10.9002
ring	-10.9005
▁sheep	-10.9006
▁testing	-10.9008
▁maine	-10.9015
▁persia	-10.9017
▁ruin	-10.9022
▁farming	-10.9023
▁rotation	-10.9024
▁sav	-10.9027
wil	-10.9027
▁ward	-10.903
▁bachelor	-10.9032
▁khyber	-10.9032
▁pronunciation	-10.9032
▁santiago	-10.9032
▁manuel	-10.9035
▁cats	-10.9041
▁wire	-10.9044
hal	-10.9054
▁neil	-10.9054
▁heating	-10.9054
▁wait	-10.9056
▁desire	-10.9056
▁conventional	-10.9057
▁99	-10.9057
▁rad	-10.907
▁zu	-10.907
▁harbour	-10.9072
▁tuesday	-10.9072
▁synthesis	-10.9072
▁bundesliga	-10.9072
▁circular	-10.9072
▁cf	-10.9072
▁1866	-10.9075
▁translate	-10.9079
pen	-10.9081
▁mine	-10.9082
▁fifty	-10.9088
eb	-10.9091
▁carrying	-10.9094
▁dal	-10.9101
▁papa	-10.9101
michelle	-10.9101
▁chat	-10.9104
agne	-10.9104
▁injured	-10.9105
▁heads	-10.9106
▁shoulder	-10.9108
▁themes	-10.9108
▁crow	-10.9111
▁hudson	-10.9112
▁cinema	-10.9112
▁gates	-10.9114
▁drop	-10.9116
▁1884	-10.9116
▁tur	-10.9119
aj	-10.9119
▁wash	-10.9125
▁spa	-10.9127
▁alpha	-10.9133
▁rulers	-10.9142
▁locations	-10.9145
ash	-10.9147
▁fairy	-10.9151
▁widow	-10.9151
▁crisis	-10.9152
▁raymond	-10.9152
▁kirby	-10.9152
▁tampa	-10.9152
▁superior	-10.9153
▁gary	-10.9154
▁grows	-10.9155
▁diseases	-10.9156
▁1871	-10.9156
▁deutsche	-10.9159
▁joins	-10.9164
▁kat	-10.9168
▁victorian	-10.917
▁displayed	-10.9173
tch	-10.9181
▁lucy	-10.9186
▁carv	-10.9187
▁masters	-10.919
▁numeral	-10.9192
▁dissipat	-10.9192
▁similarly	-10.9194
▁barrier	-10.9194
▁extratropic	-10.9195
▁schedule	-10.9197
ping	-10.9198
▁variet	-10.9202
▁colombia	-10.9206
lam	-10.9207
odore	-10.9208
▁grandson	-10.9211
▁populations	-10.9213
▁naturally	-10.9218
▁hawk	-10.9222
▁inhabited	-10.9226
▁lit	-10.9228
▁verde	-10.9229
▁hybrid	-10.9232
▁identify	-10.9232
▁funeral	-10.9232
▁sebastian	-10.9233
▁flemish	-10.9233
▁panama	-10.9234
scale	-10.9237
▁committ	-10.9237
▁venus	-10.9239
mes	-10.9242
▁explain	-10.9243
▁vegas	-10.9244
language	-10.9247
▁snake	-10.9252
▁alter	-10.9258
lf	-10.9261
▁collins	-10.9268
dia	-10.9268
▁gallery	-10.9273
▁crater	-10.9273
▁58	-10.9276
uri	-10.9276
down	-10.9277
▁edgar	-10.9278
wald	-10.9281
▁zel	-10.9287
ika	-10.9288
▁pine	-10.9291
▁browser	-10.9293
▁tech	-10.9293
▁preferr	-10.9294
▁michaels	-10.9296
▁cho	-10.9311
▁relief	-10.9314
aro	-10.9314
rose	-10.9315
▁mann	-10.9317
82	-10.9329
▁understand	-10.9332
▁glacier	-10.9335
▁queens	-10.9336
▁bol	-10.9338
▁fitz	-10.934
▁exercise	-10.9342
pool	-10.9342
ates	-10.9348
▁volkswagen	-10.9354
▁shuttle	-10.9354
▁violent	-10.9354
▁smell	-10.9355
▁retail	-10.9357
▁bang	-10.936
▁estimate	-10.9361
▁membership	-10.9362
vert	-10.9366
▁manage	-10.9379
▁partition	-10.938
ith	-10.9381
▁preced	-10.9388
▁turk	-10.9393
▁attribut	-10.9393
▁territorial	-10.9395
▁publicly	-10.9397
▁divine	-10.9399
▁ubuntu	-10.9399
▁grove	-10.94
▁tro	-10.9404
▁hearing	-10.9406
▁prisoners	-10.9407
▁bonn	-10.9408
▁smoke	-10.9411
▁57	-10.9426
▁voices	-10.9427
▁bryan	-10.9428
▁trouble	-10.9436
▁panel	-10.9436
ating	-10.9438
▁1854	-10.944
▁railways	-10.9445
▁offering	-10.9446
kan	-10.9447
sel	-10.9451
▁advertising	-10.9454
▁probe	-10.9459
▁prophet	-10.946
▁generate	-10.9465
▁settler	-10.9465
▁tornado	-10.9465
▁oh	-10.9468
nese	-10.947
▁alleged	-10.9474
lay	-10.9477
▁respond	-10.9477
▁elsewhere	-10.9478
▁monitor	-10.9478
▁investment	-10.9478
▁prove	-10.9481
▁73	-10.9483
▁guilt	-10.9485
▁diverse	-10.9492
▁eg	-10.9494
▁naming	-10.9497
arm	-10.9497
▁1836	-10.9498
▁mate	-10.9501
▁millenni	-10.9507
ction	-10.9515
▁breeding	-10.9516
tre	-10.9516
▁forty	-10.9517
▁attorney	-10.9519
▁soundgarden	-10.9519
▁absence	-10.9519
▁scatter	-10.9519
▁sheffield	-10.9519
▁trojan	-10.952
▁gra	-10.9521
▁sara	-10.9521
▁grandfather	-10.9522
▁dozen	-10.9523
▁shield	-10.9525
ua	-10.953
▁whil	-10.9531
kel	-10.9535
▁63	-10.9538
▁dri	-10.9542
▁relation	-10.9552
▁nam	-10.9552
▁motors	-10.9556
▁vladimir	-10.9561
▁astronomical	-10.9561
▁phenomenon	-10.9561
▁pleasure	-10.9561
▁monkey	-10.9562
▁merger	-10.9562
tan	-10.9563
▁latitude	-10.9563
▁familiar	-10.9563
▁chuck	-10.9565
▁frost	-10.9565
▁fred	-10.9566
▁dual	-10.9567
▁pinn	-10.9571
▁keith	-10.9572
▁mb	-10.9575
▁consumer	-10.9576
▁gli	-10.9579
str	-10.9582
▁tai	-10.9587
ect	-10.9589
▁ingredients	-10.959
▁morris	-10.9591
▁lucas	-10.9596
ute	-10.9597
▁centers	-10.96
▁kei	-10.96
▁mud	-10.9601
▁conversion	-10.9603
ribal	-10.9616
2009	-10.9619
free	-10.962
▁marvel	-10.9622
onne	-10.9627
▁declare	-10.9633
▁ye	-10.9633
hem	-10.9635
▁voyage	-10.9638
▁160	-10.9643
▁increasingly	-10.9643
▁philosophical	-10.9644
▁industries	-10.9644
▁abraham	-10.9644
▁copyright	-10.9645
▁prague	-10.9645
▁lava	-10.9649
▁1864	-10.9649
▁dominat	-10.9653
▁1856	-10.9653
▁tier	-10.9661
▁cloth	-10.9665
▁stra	-10.9668
▁specifi	-10.9675
aba	-10.9678
▁dinosaurs	-10.9682
▁calvin	-10.9686
▁minimum	-10.9687
▁inherit	-10.9687
▁screenwriter	-10.9687
▁cyrilli	-10.9688
▁guns	-10.9691
▁warsaw	-10.9691
▁criticism	-10.9692
▁regime	-10.9701
▁kid	-10.9702
▁feathers	-10.9711
▁latvia	-10.9714
ges	-10.972
▁ec	-10.9722
▁gaul	-10.9725
▁slave	-10.9729
▁rttemberg	-10.9729
▁valuable	-10.9729
▁birthplace	-10.9729
▁voting	-10.973
▁leather	-10.973
▁select	-10.9732
▁claw	-10.9734
tant	-10.9739
las	-10.9742
▁frequent	-10.9743
▁tied	-10.9744
▁revis	-10.9745
▁cork	-10.9747
▁reactions	-10.9749
fax	-10.975
chin	-10.9751
▁walking	-10.9752
▁len	-10.9752
▁presentation	-10.9755
▁bestsell	-10.9757
are	-10.9758
shore	-10.9761
▁ancestor	-10.9761
▁swan	-10.9763
▁lebanon	-10.9771
▁nickelodeon	-10.9771
▁hypothesis	-10.9772
▁boil	-10.9772
▁biologist	-10.9772
win	-10.9773
▁kate	-10.9776
ille	-10.9776
▁1869	-10.9777
▁readers	-10.9778
class	-10.9781
▁bombing	-10.9783
▁kh	-10.9786
2008	-10.979
roque	-10.9793
▁sega	-10.9794
▁kara	-10.9796
▁saving	-10.9796
▁proteins	-10.9801
▁crowned	-10.9803
▁def	-10.9804
▁follower	-10.9806
▁brass	-10.9807
▁enterprise	-10.9814
▁error	-10.9814
▁abbreviation	-10.9814
▁permission	-10.9815
making	-10.9818
▁duchess	-10.9818
▁sphere	-10.982
▁poll	-10.9824
▁precise	-10.9825
▁germanic	-10.9827
▁regent	-10.9832
1999	-10.9833
▁graphics	-10.9838
body	-10.9847
run	-10.9852
▁johannes	-10.9854
▁sediment	-10.9858
▁theories	-10.9862
ator	-10.9862
bus	-10.9864
▁raf	-10.9869
▁drives	-10.9877
▁preserve	-10.9877
▁drew	-10.9881
▁machines	-10.9894
▁vitamin	-10.9894
▁crossed	-10.9899
tro	-10.99
▁aragon	-10.99
▁unofficial	-10.9901
▁bun	-10.9904
▁orbital	-10.9905
▁1849	-10.9906
▁signing	-10.9907
▁craig	-10.9908
▁corresponding	-10.991
▁baltic	-10.991
▁diplomat	-10.9912
ets	-10.9914
▁crack	-10.9922
lived	-10.9922
▁responsibilit	-10.9922
▁mach	-10.9923
▁alma	-10.9925
▁arabian	-10.9927
▁0.1	-10.9932
for	-10.9933
▁crimes	-10.9941
▁lotus	-10.9941
▁wu	-10.9942
▁parade	-10.9944
▁wizard	-10.9944
▁aboriginal	-10.9944
▁abortion	-10.9944
▁appropriate	-10.9944
▁collision	-10.9944
▁enemies	-10.9944
▁empress	-10.9944
▁encryption	-10.9945
▁pea	-10.9945
▁ruling	-10.9945
eville	-10.9945
▁celebration	-10.9946
▁troy	-10.9955
▁publications	-10.9956
ians	-10.9968
▁illustrated	-10.997
▁liu	-10.9971
uc	-10.9972
▁stones	-10.9973
▁keeping	-10.9974
pot	-10.9977
rat	-10.9978
▁nomination	-10.9983
▁conclud	-10.9986
▁sight	-10.9986
▁tyler	-10.9988
▁controller	-10.9993
▁ville	-10.9994
▁understood	-10.9994
▁invention	-10.9998
▁rats	-11.0001
▁jose	-11.0004
aga	-11.0006
▁donat	-11.0008
broad	-11.0011
▁alive	-11.0013
oku	-11.0014
▁mai	-11.0016
▁erect	-11.0016
▁ib	-11.0016
▁isle	-11.0016
▁pres	-11.002
▁functional	-11.0024
▁tibet	-11.0026
▁competing	-11.0031
▁debian	-11.0032
▁trademark	-11.0033
▁reformed	-11.0034
lying	-11.0038
▁concentrat	-11.0039
▁kr	-11.0046
▁athletes	-11.0048
▁presenter	-11.0051
▁sick	-11.0055
▁relatives	-11.0056
▁measures	-11.0067
isation	-11.0068
bin	-11.0072
▁budget	-11.0075
▁trumpet	-11.0075
▁quantity	-11.0076
▁chord	-11.0079
▁danger	-11.0079
uz	-11.0081
▁liberty	-11.0082
▁beck	-11.0083
tr	-11.0087
▁dollar	-11.0088
cht	-11.0088
▁burning	-11.0093
▁dro	-11.01
▁mines	-11.0101
ologist	-11.011
▁oceanic	-11.0113
▁bend	-11.0114
▁neutral	-11.0115
▁honour	-11.0116
ax	-11.0117
▁advice	-11.0119
▁astronomy	-11.0119
part	-11.012
▁brandenburg	-11.0121
▁grave	-11.0122
▁skater	-11.0123
▁wool	-11.0126
▁1815	-11.0128
gram	-11.0129
lor	-11.0129
▁cran	-11.0135
▁cab	-11.0138
ule	-11.0138
▁lind	-11.0139
▁heath	-11.014
▁loosely	-11.0142
▁continuous	-11.0145
▁fill	-11.0145
▁steps	-11.0147
▁grande	-11.0152
sville	-11.0155
▁sho	-11.0156
▁videos	-11.0156
▁comet	-11.0158
igny	-11.0159
▁bermuda	-11.0163
▁hydroxide	-11.0163
▁protagonist	-11.0163
▁qualify	-11.0163
▁theoretical	-11.0163
itis	-11.0163
▁shallow	-11.0164
▁freshwater	-11.0164
▁tramway	-11.0164
▁births	-11.0166
▁rifle	-11.0168
▁shipp	-11.0171
▁verse	-11.0172
▁qua	-11.0172
▁oral	-11.0173
▁pedro	-11.0174
▁parker	-11.0174
▁woods	-11.018
▁sailor	-11.0181
▁sen	-11.0184
▁tune	-11.0185
▁producers	-11.019
▁homes	-11.0193
card	-11.0198
▁alba	-11.02
▁feud	-11.0201
lot	-11.0203
▁spy	-11.0203
▁viola	-11.0204
▁wolfgang	-11.0207
▁chakwal	-11.0207
▁afternoon	-11.0207
▁santos	-11.0209
▁cbe	-11.021
▁1791	-11.0211
▁primitive	-11.0211
▁1873	-11.0212
▁mus	-11.0218
▁cargo	-11.0219
▁matters	-11.0221
video	-11.0227
▁creatures	-11.0232
▁participate	-11.0233
▁guru	-11.0235
▁victims	-11.0239
▁strain	-11.0243
▁murdered	-11.0243
▁knights	-11.0249
▁invad	-11.0249
eo	-11.0252
▁squad	-11.0252
▁hainaut	-11.0252
▁ottawa	-11.0252
▁cuisine	-11.0252
▁rip	-11.0253
▁pl	-11.0253
▁glad	-11.0253
▁headquarter	-11.0253
▁frog	-11.0255
▁61	-11.0257
▁attraction	-11.0261
▁unifi	-11.0261
▁zinc	-11.0261
▁weigh	-11.0263
met	-11.0265
▁charity	-11.0265
▁interpret	-11.027
▁genetics	-11.028
▁normand	-11.0284
▁bot	-11.0285
▁dense	-11.0295
▁singers	-11.0296
▁twentieth	-11.0297
▁cofound	-11.0297
▁devote	-11.0297
▁roleplay	-11.0298
▁math	-11.0299
▁fee	-11.03
▁1858	-11.0301
▁criticiz	-11.0302
▁pull	-11.0306
▁angles	-11.0306
ancy	-11.031
ois	-11.0311
while	-11.0316
continental	-11.0318
beck	-11.0324
▁nan	-11.0326
▁101	-11.0329
▁lots	-11.0333
▁gum	-11.0337
▁researcher	-11.0339
▁bristol	-11.0342
▁jurisdiction	-11.0342
▁efficient	-11.0342
▁stitch	-11.0345
▁outbreak	-11.0345
▁ferrari	-11.0345
▁revival	-11.0348
▁periodic	-11.0351
▁lac	-11.0353
▁markets	-11.0353
▁tehsils	-11.0355
ingham	-11.0358
▁robot	-11.0359
▁bret	-11.0363
▁jun	-11.0367
▁torre	-11.0369
▁kin	-11.0383
▁bug	-11.0385
▁marc	-11.0386
▁somerset	-11.0387
▁admitted	-11.0387
▁quarterback	-11.0388
▁78	-11.0388
▁interrupt	-11.0389
▁elementary	-11.0392
▁restored	-11.0398
▁vista	-11.0401
▁pad	-11.0405
▁pol	-11.0409
▁jamaica	-11.0418
▁valencia	-11.0428
lit	-11.043
▁boxer	-11.043
ines	-11.0432
▁arrondissement	-11.0433
▁autumn	-11.0433
▁constellation	-11.0433
▁jurassic	-11.0433
▁blackhawks	-11.0433
▁hardcore	-11.0434
▁economist	-11.0434
itz	-11.0435
▁insurance	-11.0435
nos	-11.0436
▁dinosaur	-11.0437
▁chili	-11.0441
▁roe	-11.0443
▁kam	-11.0444
▁smart	-11.0445
▁cas	-11.0445
▁ions	-11.0446
▁chin	-11.0447
▁consistent	-11.0449
▁lb	-11.0457
▁divorced	-11.0462
log	-11.0465
▁kreis	-11.0465
▁pri	-11.0466
▁medici	-11.0475
▁hyderabad	-11.0478
▁intellectual	-11.0478
▁wedding	-11.0479
▁duties	-11.0479
▁nucleus	-11.048
▁helen	-11.0481
▁creative	-11.0481
▁subway	-11.0482
pro	-11.0483
▁warrior	-11.0484
▁1801	-11.0486
nell	-11.0489
ode	-11.049
llo	-11.0491
ress	-11.0492
▁shaw	-11.0492
▁cruz	-11.0495
▁yan	-11.0497
▁slayer	-11.0501
▁stripes	-11.0504
if	-11.0506
oh	-11.051
▁temperat	-11.0515
▁tab	-11.0516
▁meta	-11.0519
▁marcu	-11.0519
▁passion	-11.0519
bach	-11.0522
▁undertaker	-11.0524
▁surrey	-11.0524
▁restoration	-11.0525
▁commons	-11.0527
▁peppers	-11.0527
lle	-11.0529
▁1853	-11.0529
▁pastor	-11.0533
▁kart	-11.0533
▁satellites	-11.0534
▁violinist	-11.0535
▁ear	-11.0536
▁slovak	-11.0538
▁religions	-11.0544
▁ion	-11.0548
dor	-11.0554
▁nose	-11.0558
▁soup	-11.056
▁83	-11.056
▁mcc	-11.0561
▁ob	-11.0564
▁poker	-11.0568
▁ruth	-11.0568
▁nixon	-11.057
▁fabric	-11.057
▁tourists	-11.0572
▁cent	-11.0574
▁cod	-11.0576
▁marsh	-11.0585
▁teachers	-11.0588
▁bert	-11.059
▁um	-11.059
▁petr	-11.0591
dimensional	-11.0591
▁penalt	-11.0592
▁thinking	-11.0594
liberation	-11.0599
▁ei	-11.06
▁illness	-11.0606
▁beta	-11.0611
▁clouds	-11.0614
▁luther	-11.0616
▁spiral	-11.0616
▁fragment	-11.0616
▁algae	-11.0617
▁nonprofit	-11.0617
box	-11.0617
ati	-11.0619
asia	-11.0623
ified	-11.0626
hall	-11.0626
bri	-11.0629
▁87	-11.0631
▁commissioner	-11.0633
▁rabbit	-11.0634
▁dann	-11.0635
▁brighton	-11.0635
▁rag	-11.0642
▁malay	-11.0645
▁yama	-11.0646
▁shooting	-11.0649
▁spoke	-11.0655
▁rounds	-11.066
ona	-11.0661
▁voltage	-11.0664
▁sensor	-11.0664
▁supports	-11.0666
▁1841	-11.0668
ico	-11.0672
▁owners	-11.0673
▁turning	-11.0674
▁segment	-11.0674
▁20000	-11.0674
▁stole	-11.0675
cc	-11.068
▁fever	-11.0681
▁partially	-11.0682
▁tomb	-11.0686
tsu	-11.0691
▁platforms	-11.0692
▁alberta	-11.0693
▁spd	-11.0694
▁settlements	-11.0697
▁strange	-11.0698
▁tank	-11.0707
▁luc	-11.0708
▁echidna	-11.071
▁chelsea	-11.071
▁offspring	-11.071
▁yucat	-11.071
▁borrow	-11.071
▁esperanto	-11.071
▁probability	-11.0711
▁eclipse	-11.0712
▁nephew	-11.0712
▁chef	-11.0712
▁pride	-11.0714
▁1868	-11.0715
▁luigi	-11.0715
▁mantle	-11.0715
▁1824	-11.0716
▁900	-11.0719
▁brick	-11.0721
gal	-11.0724
▁volcanoes	-11.0726
▁vel	-11.0726
bourne	-11.073
ora	-11.0743
▁76	-11.0755
▁compress	-11.0756
▁commerce	-11.0757
▁explosion	-11.0757
▁facility	-11.0757
iversity	-11.0757
▁toyota	-11.0757
aux	-11.0757
▁assassination	-11.0757
▁tension	-11.0757
▁isabella	-11.0758
▁syn	-11.0761
mor	-11.0765
▁tract	-11.0768
▁rt	-11.0776
▁bah	-11.0777
▁explor	-11.0777
av	-11.0778
▁sizes	-11.0779
▁limits	-11.0792
▁app	-11.0794
▁reverse	-11.0802
▁alexandra	-11.0804
▁floyd	-11.0804
▁harold	-11.0804
▁til	-11.0804
lew	-11.0806
▁crush	-11.0809
▁assassinated	-11.081
▁keynes	-11.081
▁systematic	-11.0811
▁supplies	-11.0811
▁extinction	-11.0812
och	-11.0812
▁radioactiv	-11.0815
▁constitute	-11.0816
cul	-11.0817
▁nigeria	-11.0818
▁malta	-11.082
▁carol	-11.0824
wal	-11.0825
▁mag	-11.0826
ably	-11.0827
▁portable	-11.083
▁beer	-11.0832
▁lesson	-11.0838
▁businesses	-11.0839
▁encourage	-11.0839
▁polo	-11.0839
stock	-11.0849
▁manitoba	-11.0851
▁treasure	-11.0851
▁possibilit	-11.0851
▁motorway	-11.0854
▁nickel	-11.0855
▁indicates	-11.0855
▁comp	-11.0856
▁aaron	-11.0857
▁tiny	-11.0865
▁argue	-11.0875
▁700	-11.0876
key	-11.0882
▁caps	-11.0885
▁79	-11.0887
▁viewers	-11.0888
▁percussion	-11.0894
▁conclusion	-11.0899
▁synthetic	-11.0899
▁paramount	-11.0899
▁rainbow	-11.0899
▁proposal	-11.09
▁felix	-11.09
▁ranking	-11.0906
▁edited	-11.0907
▁guardian	-11.0908
nar	-11.0909
▁protector	-11.0909
▁brave	-11.0911
app	-11.0912
▁experienc	-11.0919
ock	-11.092
▁coral	-11.0922
▁inspiration	-11.0925
▁rey	-11.0929
▁venezuela	-11.0932
▁median	-11.0934
▁curse	-11.0935
▁baba	-11.0942
olo	-11.0946
▁decrease	-11.0946
▁procedure	-11.0947
▁archaeological	-11.0947
▁colloquial	-11.0947
▁embedd	-11.0947
▁surname	-11.0947
▁puppet	-11.0948
▁fuji	-11.0948
▁hollow	-11.0948
▁marketing	-11.0948
▁thereafter	-11.0949
▁layout	-11.0952
▁fortune	-11.0952
▁facto	-11.0953
▁patch	-11.0954
▁pluto	-11.0956
▁cou	-11.096
300	-11.0969
fin	-11.0971
▁relationships	-11.0972
▁rep	-11.0978
bur	-11.0979
▁wonder	-11.0981
ef	-11.0982
▁experiences	-11.0984
▁photo	-11.0985
iya	-11.0989
▁hiroshi	-11.0994
▁mikhail	-11.0995
▁rudolf	-11.0995
▁strategy	-11.0995
▁theatrical	-11.0995
▁surprise	-11.0995
▁doubt	-11.0995
▁cryptography	-11.0995
▁swimming	-11.0995
ification	-11.0995
▁shopping	-11.0995
▁anastasia	-11.0996
▁mvp	-11.0996
▁efficiency	-11.0996
▁tommy	-11.0997
▁outstanding	-11.0997
▁colin	-11.0998
▁nascar	-11.0999
▁pete	-11.1
▁sharks	-11.1002
▁deck	-11.1008
▁teachings	-11.101
name	-11.1014
▁finals	-11.1014
length	-11.1017
▁tele	-11.1017
▁linear	-11.1022
▁das	-11.1022
elected	-11.1023
wer	-11.1025
▁listing	-11.1032
▁twist	-11.1033
polis	-11.1035
▁hid	-11.1036
▁channels	-11.1036
▁dol	-11.1039
▁comparison	-11.1043
▁drift	-11.1043
▁foster	-11.1044
▁entity	-11.1044
▁chu	-11.1045
▁newcastle	-11.1045
▁nitrogen	-11.1046
▁bri	-11.1046
▁exit	-11.1048
nen	-11.1051
▁perth	-11.1053
ole	-11.1056
▁millions	-11.106
▁kangaroo	-11.1062
▁variation	-11.1063
▁geo	-11.1064
▁editions	-11.1065
▁burma	-11.1067
▁chan	-11.1068
eira	-11.107
▁worms	-11.1072
▁seconds	-11.1081
▁talking	-11.1084
▁honorar	-11.1085
abi	-11.1085
▁thurg	-11.1087
▁prox	-11.109
▁oxidation	-11.1092
▁shrine	-11.1092
▁juice	-11.1092
▁125	-11.1098
▁cre	-11.1099
▁lorenzo	-11.11
▁wang	-11.1102
bol	-11.1102
▁jin	-11.1102
zzo	-11.1104
▁encourag	-11.1104
▁mature	-11.1108
▁essay	-11.1109
▁sought	-11.111
▁gl	-11.1114
▁belonged	-11.1115
▁sel	-11.1115
▁rosa	-11.1117
▁linguistic	-11.112
zz	-11.1123
▁competitions	-11.1124
pit	-11.1128
▁mongolia	-11.1129
cent	-11.1134
▁arsenal	-11.114
▁leopold	-11.114
▁messenger	-11.114
▁infrastructure	-11.114
▁consequence	-11.114
▁orlando	-11.1141
▁derbyshire	-11.1142
▁pitcher	-11.1143
▁gauge	-11.1143
▁1820	-11.1149
▁lip	-11.1151
▁flame	-11.1155
four	-11.1158
shaw	-11.116
▁witness	-11.1161
▁earning	-11.1163
▁kenya	-11.1164
see	-11.1165
▁trick	-11.1166
▁stamp	-11.1167
colm	-11.1169
▁graphic	-11.1171
▁pra	-11.1179
▁monuments	-11.1181
inho	-11.1182
▁continuing	-11.1184
▁hali	-11.1186
▁constituent	-11.1189
▁anatomy	-11.1189
▁secular	-11.119
▁minimal	-11.119
▁yield	-11.119
▁infantry	-11.1191
▁watson	-11.1191
▁pig	-11.1192
▁ole	-11.1194
▁landmark	-11.1194
▁lc	-11.1195
▁imp	-11.1197
▁hatch	-11.1204
▁mixing	-11.1205
ility	-11.1206
▁cardinals	-11.1207
die	-11.1207
▁dolphin	-11.1212
▁coll	-11.1215
una	-11.1219
▁barb	-11.122
▁indonesian	-11.1224
▁bas	-11.1225
▁rot	-11.1232
ovi	-11.1237
▁greg	-11.1238
▁logical	-11.1238
▁ambassador	-11.1239
▁recipient	-11.1239
▁ritual	-11.1239
▁sanskrit	-11.1239
▁thumb	-11.1239
▁lan	-11.1239
▁algeria	-11.1239
▁arcade	-11.124
▁tap	-11.1244
▁1844	-11.1245
list	-11.1246
▁mari	-11.1246
▁storyline	-11.1248
▁vent	-11.1249
▁eliminated	-11.125
▁mas	-11.1252
▁guild	-11.1258
▁manual	-11.1258
▁americas	-11.1273
▁layers	-11.1276
▁ple	-11.1279
▁phillip	-11.1281
▁stein	-11.1281
lli	-11.1282
▁acids	-11.1283
▁nun	-11.1285
▁wallace	-11.1288
▁consequent	-11.1288
▁cooperative	-11.1289
▁cornell	-11.1289
ori	-11.1292
▁1842	-11.1295
▁slavery	-11.1295
▁printing	-11.1296
▁gase	-11.1297
ties	-11.1297
▁coastline	-11.1299
▁denominations	-11.13
▁faced	-11.1303
▁michel	-11.1307
▁nebula	-11.1309
tia	-11.131
▁picked	-11.1311
eta	-11.1311
▁fen	-11.1312
▁regiment	-11.1315
▁shir	-11.1316
▁diamond	-11.1318
▁bore	-11.1319
▁buck	-11.1328
▁competitor	-11.1338
▁ahmad	-11.1338
▁trough	-11.1338
▁accurate	-11.1339
▁punishment	-11.1339
▁strauss	-11.1339
▁implementation	-11.1341
▁1837	-11.1344
inus	-11.1344
▁1831	-11.1348
▁dil	-11.1349
▁desir	-11.135
▁archer	-11.1351
front	-11.1353
▁brit	-11.1353
▁sw	-11.1354
▁mick	-11.1354
▁princeton	-11.1356
▁intel	-11.1362
▁andrea	-11.1363
chel	-11.1364
▁detailed	-11.1365
▁gy	-11.1371
▁conductors	-11.1374
▁lung	-11.1384
master	-11.1385
▁confederate	-11.1388
▁wednesday	-11.1388
▁trigger	-11.1388
▁biblical	-11.1388
▁hindenburg	-11.1388
▁commercially	-11.1388
▁occurring	-11.1389
▁smok	-11.139
▁collections	-11.1392
▁1789	-11.1394
▁105	-11.1394
▁ix	-11.1396
▁din	-11.1397
▁67	-11.1399
▁larr	-11.1399
▁opportunity	-11.1399
▁chilean	-11.1399
▁cru	-11.1401
▁bare	-11.1402
▁radiu	-11.1404
omi	-11.1404
▁rebuil	-11.1407
▁ensure	-11.1413
season	-11.1413
▁anchor	-11.1415
▁fruits	-11.1418
aya	-11.1431
▁sil	-11.1432
▁warriors	-11.1432
old	-11.1435
▁penn	-11.1438
▁acronym	-11.1438
▁concrete	-11.1438
▁guatemala	-11.1438
▁cameroon	-11.1438
▁syndrome	-11.1438
▁harp	-11.1438
▁elastic	-11.1438
▁calcium	-11.1438
▁domingo	-11.1439
▁hamlet	-11.1442
▁hawaiian	-11.1449
▁greenland	-11.1455
▁horses	-11.1457
▁hermann	-11.146
▁aka	-11.1461
▁ou	-11.1462
▁wat	-11.1473
▁hiro	-11.1475
▁correspond	-11.1476
▁terror	-11.1478
▁trials	-11.1481
ussr	-11.1484
▁genocide	-11.1489
▁participant	-11.1489
▁osaka	-11.1489
▁singular	-11.1489
▁email	-11.149
▁claude	-11.1491
▁fal	-11.1492
▁forever	-11.1493
▁fault	-11.1493
stood	-11.1494
▁affiliate	-11.1495
▁stern	-11.1496
▁chambers	-11.1499
▁celesti	-11.1499
put	-11.1501
▁oval	-11.1505
▁pon	-11.1507
▁wil	-11.1516
sberg	-11.1517
▁debt	-11.152
▁epi	-11.1521
▁mul	-11.1526
▁slam	-11.1531
mus	-11.1532
▁shops	-11.1533
▁glove	-11.1535
▁rib	-11.1535
▁suitabl	-11.1537
▁spencer	-11.1539
▁chorus	-11.1539
▁conservatory	-11.1539
▁feast	-11.1541
▁oblast	-11.1542
▁percentage	-11.1542
▁environments	-11.1543
▁stroke	-11.1549
▁hurt	-11.1549
▁140	-11.155
▁1851	-11.1553
itt	-11.1554
west	-11.1556
▁slaves	-11.1559
core	-11.156
▁clos	-11.1568
▁crops	-11.1569
▁tournaments	-11.157
▁hook	-11.1574
▁ethiopia	-11.1576
▁prussian	-11.1578
ller	-11.1581
▁batt	-11.1584
▁beethoven	-11.159
▁shepherd	-11.159
▁sufficient	-11.159
▁bruins	-11.1591
▁swamp	-11.1591
▁steep	-11.1591
▁limestone	-11.1591
▁ned	-11.1591
▁equation	-11.1592
ela	-11.1593
▁disco	-11.1594
▁burton	-11.1596
▁simultaneously	-11.1598
▁judges	-11.1601
form	-11.1605
▁dome	-11.1607
▁dante	-11.1609
avi	-11.1626
▁achievement	-11.1626
mmer	-11.1626
genesis	-11.1629
▁kha	-11.163
▁theaters	-11.1631
▁bishops	-11.1631
▁1875	-11.1632
▁fried	-11.1632
▁gather	-11.1633
▁subfamil	-11.1638
▁mills	-11.1638
▁explanation	-11.1642
▁occupy	-11.1642
▁significance	-11.1642
▁strategic	-11.1642
▁psychological	-11.1642
▁acute	-11.1643
▁assault	-11.1643
▁zo	-11.1644
▁velocity	-11.1644
▁migration	-11.1644
▁reliabl	-11.1646
▁oath	-11.1646
▁marina	-11.1648
▁separation	-11.1651
▁1832	-11.1652
▁cheap	-11.1652
▁shawn	-11.1658
kov	-11.1658
▁blocks	-11.1664
jan	-11.1672
▁aqua	-11.1672
▁rem	-11.1673
▁ply	-11.1673
▁variant	-11.1676
yama	-11.1678
▁consumpti	-11.168
▁boss	-11.1683
▁finn	-11.1683
▁97	-11.1683
ifer	-11.1684
▁insect	-11.1686
lie	-11.1688
▁devon	-11.169
▁chevrolet	-11.1693
▁cincinnati	-11.1693
▁spawn	-11.1693
▁randy	-11.1694
▁weimar	-11.1694
▁scholarship	-11.1694
▁moss	-11.1695
ichi	-11.1696
▁installation	-11.1698
▁evans	-11.1702
lav	-11.1703
meteorological	-11.1706
▁impossib	-11.1707
▁boeing	-11.1709
▁frei	-11.1712
eux	-11.1713
▁compositions	-11.1716
▁originate	-11.1716
kreis	-11.1718
▁properly	-11.1719
▁increases	-11.1719
▁manor	-11.172
▁2.0	-11.1721
▁congo	-11.1722
▁burial	-11.1722
▁1600	-11.1724
▁putt	-11.1725
hour	-11.1728
▁doubles	-11.173
▁interpretation	-11.1731
▁operator	-11.1732
round	-11.1734
▁enabl	-11.1734
▁alban	-11.1735
▁sessions	-11.174
▁celebrity	-11.1745
▁perspective	-11.1745
▁capitol	-11.1745
▁kernel	-11.1745
werp	-11.1746
zan	-11.1746
▁somali	-11.1747
▁icon	-11.1747
▁hear	-11.1748
▁lisa	-11.1748
▁tours	-11.175
▁ignor	-11.1752
▁1846	-11.1753
▁strand	-11.1753
▁beau	-11.1753
▁friendly	-11.1753
▁constantine	-11.1754
▁subdivisions	-11.1754
▁pairs	-11.1756
▁teenager	-11.1757
olj	-11.1758
lier	-11.1758
▁comun	-11.1761
craft	-11.1761
▁bru	-11.1765
▁edwards	-11.1765
▁raj	-11.1767
▁eleventh	-11.1773
▁butterfly	-11.1774
▁perry	-11.1775
▁introduce	-11.1776
▁dame	-11.178
▁genes	-11.178
▁anglo	-11.1781
ctor	-11.1781
00	-11.1784
▁nice	-11.1784
uni	-11.1785
mit	-11.1787
▁ready	-11.179
mid	-11.1792
▁trap	-11.1795
▁morocco	-11.1797
▁induction	-11.1797
▁neutron	-11.1797
▁appointment	-11.1798
▁roy	-11.1798
▁silent	-11.1798
▁sean	-11.1799
▁antille	-11.1799
los	-11.1802
▁panther	-11.1803
600	-11.1807
▁attitude	-11.1813
▁ste	-11.1815
▁maxim	-11.1819
dis	-11.1824
5000	-11.1825
▁115	-11.1825
ht	-11.1833
▁chronicles	-11.1835
band	-11.1837
▁rogers	-11.1845
▁suspect	-11.185
▁unsuccessful	-11.185
▁lea	-11.185
▁costume	-11.1851
▁fischer	-11.1851
▁sudan	-11.1851
▁jungle	-11.1853
▁duty	-11.1854
▁mun	-11.1857
▁zen	-11.1858
▁walker	-11.186
▁cocoa	-11.1862
vis	-11.1864
▁fled	-11.1868
kara	-11.1871
sley	-11.1874
▁ven	-11.1874
▁denis	-11.1877
▁4000	-11.1882
▁folklor	-11.1887
▁1790	-11.1891
▁fac	-11.1896
▁luci	-11.19
▁legacy	-11.1902
▁essex	-11.1902
▁maurice	-11.1903
▁enroll	-11.1903
▁assistance	-11.1904
▁punch	-11.1904
▁improvement	-11.1905
▁oslo	-11.1905
mil	-11.1906
▁sperm	-11.1907
▁oriental	-11.1915
▁meal	-11.1916
yu	-11.1916
anne	-11.1919
▁suspended	-11.192
cio	-11.1921
▁reli	-11.1924
▁todd	-11.1924
▁handl	-11.193
bound	-11.1934
▁proportion	-11.1938
▁mara	-11.1944
▁nash	-11.1946
▁chant	-11.1953
▁edmonton	-11.1955
▁helsinki	-11.1955
▁lavender	-11.1955
▁sunderland	-11.1955
▁durham	-11.1955
▁governorgeneral	-11.1956
▁preference	-11.1957
▁lanca	-11.1958
▁waterloo	-11.1958
▁shade	-11.1959
▁1821	-11.1965
mond	-11.1967
▁ancestors	-11.1968
▁84	-11.1971
▁carrier	-11.1971
rt	-11.1974
▁photographer	-11.198
▁snakes	-11.1982
▁lynn	-11.1983
▁marking	-11.1985
▁henri	-11.1987
ami	-11.1988
▁reforms	-11.1989
▁naked	-11.1991
cut	-11.1992
▁infect	-11.1997
▁vin	-11.1997
cap	-11.1998
ito	-11.1999
▁doors	-11.2006
▁convince	-11.2008
▁memphis	-11.2008
▁artemis	-11.2008
▁donkey	-11.2009
▁potato	-11.2009
▁colonel	-11.201
▁mitchell	-11.2011
oz	-11.2011
wing	-11.2011
▁melina	-11.2012
▁photos	-11.2013
▁1804	-11.2017
▁cairo	-11.2017
▁owen	-11.2018
▁1812	-11.202
▁qin	-11.2022
▁diary	-11.2023
▁mare	-11.2027
▁cliff	-11.2028
▁hr	-11.2032
tat	-11.2033
▁moderate	-11.2035
gel	-11.2039
▁lamb	-11.2046
▁practices	-11.2048
▁flee	-11.2049
cor	-11.2049
▁prominen	-11.2052
nay	-11.2058
▁hang	-11.206
▁0.2	-11.2061
▁copenhagen	-11.2062
▁ensemble	-11.2062
▁indoeuropean	-11.2062
▁odysse	-11.2062
▁delaware	-11.2062
▁seoul	-11.2062
▁personnel	-11.2062
▁versaille	-11.2062
▁cologne	-11.2062
▁surgery	-11.2063
national	-11.2063
▁judaism	-11.2063
▁livingston	-11.2064
▁outdoor	-11.2064
▁flux	-11.2066
fried	-11.2073
neath	-11.2074
▁airway	-11.2075
▁rev	-11.2075
shan	-11.2078
pol	-11.2079
▁lev	-11.2081
etti	-11.2082
▁proton	-11.2088
▁champ	-11.2089
alpes	-11.2091
▁salmon	-11.2093
▁pm	-11.2101
▁tenor	-11.2101
▁expect	-11.2103
▁denote	-11.2103
▁thai	-11.2103
▁realize	-11.2104
link	-11.2106
▁wrestle	-11.2106
▁rec	-11.2108
▁ferry	-11.2109
▁destination	-11.2111
▁knock	-11.2115
▁pyramid	-11.2116
▁endangered	-11.2116
▁audition	-11.2116
▁cornwall	-11.2116
▁sculptor	-11.2116
▁certifi	-11.2117
▁rig	-11.2118
▁collaboration	-11.2118
▁gender	-11.212
▁stanford	-11.212
▁1847	-11.2121
▁nancy	-11.2122
▁bison	-11.2127
▁twi	-11.2131
▁inca	-11.2131
ssen	-11.2136
▁aware	-11.2136
▁bulgarian	-11.2136
▁tone	-11.2137
▁immediate	-11.2141
had	-11.2142
mun	-11.2145
▁scots	-11.2146
▁halo	-11.2146
▁detail	-11.2149
▁rises	-11.215
act	-11.215
zon	-11.2154
rick	-11.2159
▁metals	-11.2161
▁scala	-11.2161
▁shells	-11.2161
▁breeds	-11.2162
▁interval	-11.2164
▁cart	-11.2165
▁nai	-11.2167
rah	-11.217
▁repair	-11.217
▁limburg	-11.217
▁dubai	-11.217
▁maxwell	-11.2172
▁flies	-11.2176
▁nerve	-11.2176
▁athletics	-11.2177
▁brett	-11.2178
▁pound	-11.2179
▁ut	-11.2183
▁bridges	-11.2186
▁clip	-11.2189
▁hammer	-11.2189
▁04	-11.2192
▁mart	-11.2193
▁wor	-11.2194
▁approximate	-11.2195
▁loose	-11.2197
ray	-11.2198
▁macedonia	-11.2209
▁estonia	-11.2209
▁cc	-11.221
▁mori	-11.221
▁og	-11.221
ieu	-11.2214
▁ceo	-11.2216
▁lil	-11.2218
▁bloc	-11.2219
▁qing	-11.2223
rew	-11.2223
▁intermediate	-11.2224
▁ipswich	-11.2224
▁lloyd	-11.2224
asa	-11.2224
▁perceiv	-11.2224
▁mascot	-11.2224
▁modification	-11.2224
▁scroll	-11.2224
▁boats	-11.2225
▁digest	-11.2225
▁exceptional	-11.2227
▁revision	-11.223
▁bicycle	-11.2231
hra	-11.2234
▁bald	-11.224
maker	-11.2241
▁emi	-11.2243
ify	-11.2243
▁phyl	-11.2243
▁pla	-11.2247
witt	-11.2248
▁bl	-11.225
▁villain	-11.2254
▁kit	-11.2258
▁albany	-11.2258
▁wald	-11.2259
uta	-11.2263
▁1200	-11.2265
▁94	-11.2269
▁buses	-11.227
▁toys	-11.2272
▁cond	-11.2273
hurst	-11.2274
▁pak	-11.2276
▁consort	-11.2278
▁import	-11.2278
▁petroleum	-11.2279
▁transcription	-11.2279
▁negro	-11.2279
▁partnership	-11.228
▁bitter	-11.2282
▁terminus	-11.2282
▁payment	-11.2283
▁1834	-11.2289
▁nicolas	-11.2289
nte	-11.229
hiro	-11.229
▁explained	-11.229
▁86	-11.2291
▁reache	-11.2291
▁opens	-11.2295
▁poles	-11.2296
▁suburban	-11.2297
▁fer	-11.2297
▁romeo	-11.2298
▁papers	-11.2304
▁monet	-11.2304
foot	-11.2305
aceous	-11.2306
tenham	-11.2311
▁ana	-11.2312
▁amy	-11.2315
▁au	-11.2317
▁azerbaijan	-11.2318
▁vegetables	-11.2321
▁accord	-11.2323
▁schu	-11.2325
▁ea	-11.2327
▁referendum	-11.2333
▁sulfate	-11.2333
▁grameen	-11.2334
stre	-11.2334
▁buddha	-11.2334
▁hanover	-11.2334
▁seeing	-11.2337
▁touring	-11.2339
▁cos	-11.2342
▁annex	-11.2343
▁gai	-11.2344
▁swing	-11.2347
▁avon	-11.2347
▁insert	-11.2348
▁leafs	-11.2352
benoit	-11.2354
▁curve	-11.2359
▁baja	-11.2368
▁sinn	-11.2371
bon	-11.2372
▁cyr	-11.2377
▁mos	-11.2379
▁commentar	-11.2381
▁volumes	-11.2382
▁visiting	-11.2383
aq	-11.2384
▁vil	-11.2385
▁molecule	-11.2387
▁ecuador	-11.2389
▁lachlan	-11.2389
▁delegate	-11.2389
▁ownership	-11.239
▁uprising	-11.2391
▁apartment	-11.2392
▁nitro	-11.2393
▁drain	-11.2395
▁1798	-11.2396
▁ave	-11.2397
aka	-11.2402
gary	-11.2406
▁circles	-11.2411
▁1855	-11.2415
▁funk	-11.2415
ound	-11.2419
▁kon	-11.2423
oi	-11.2424
▁reporter	-11.2428
▁slower	-11.2428
▁beef	-11.2432
▁exclud	-11.2433
▁topics	-11.2433
▁harve	-11.2433
▁eva	-11.2435
▁gram	-11.2438
sca	-11.2442
hai	-11.2444
▁katrina	-11.2444
▁anarchist	-11.2444
▁bastille	-11.2444
▁telegraph	-11.2444
▁corporate	-11.2445
▁cayce	-11.2445
▁manag	-11.2446
▁cutting	-11.2446
▁gameplay	-11.245
▁cub	-11.245
▁nineteenth	-11.2451
▁delhi	-11.2454
▁bats	-11.2456
▁demonstrate	-11.2457
▁graz	-11.2459
▁whales	-11.2462
▁jude	-11.2464
▁165	-11.2465
rail	-11.2468
▁91	-11.2472
▁inde	-11.2474
▁gear	-11.2475
▁cry	-11.2478
▁vas	-11.2483
▁turner	-11.2485
▁mur	-11.2491
▁brack	-11.25
▁salvador	-11.25
▁canterbury	-11.25
▁default	-11.25
▁angular	-11.25
▁choral	-11.25
▁stallone	-11.2501
▁handheld	-11.2501
▁shaft	-11.2501
▁nashville	-11.2501
▁marble	-11.2502
▁mau	-11.2503
▁inaugurat	-11.2504
amp	-11.2508
▁joy	-11.2508
▁1845	-11.2508
▁playoff	-11.2508
uchi	-11.251
ust	-11.2511
▁graph	-11.2515
▁kay	-11.2517
▁89	-11.252
get	-11.2521
▁liga	-11.2524
lab	-11.2528
▁lat	-11.2529
gerald	-11.2531
▁xiv	-11.2532
ota	-11.2532
dio	-11.2536
▁reed	-11.2537
▁bosnia	-11.2542
▁repeat	-11.2544
▁releas	-11.2556
▁mushroom	-11.2556
▁taluka	-11.2556
▁commenc	-11.2556
▁graves	-11.2557
▁missile	-11.2557
▁mahler	-11.2557
▁kills	-11.2558
▁precipitation	-11.2558
▁denver	-11.2558
▁skeleton	-11.2558
▁fritz	-11.256
▁steal	-11.2561
▁ppv	-11.2562
▁trapp	-11.2563
▁radar	-11.2563
▁bh	-11.2563
▁pascal	-11.2564
play	-11.2565
▁approval	-11.257
▁cited	-11.257
▁reader	-11.2574
aria	-11.2575
▁bonus	-11.2577
▁accidental	-11.2577
law	-11.2578
▁lex	-11.2578
▁nato	-11.2584
▁mild	-11.2589
▁relocat	-11.259
▁yang	-11.259
▁peer	-11.2594
▁fired	-11.2594
▁faction	-11.2603
▁electro	-11.2609
awa	-11.2611
▁homeland	-11.2611
▁habit	-11.2612
▁brisbane	-11.2613
▁poverty	-11.2613
▁retreat	-11.2613
▁libretto	-11.2613
▁commentator	-11.2613
▁disambiguation	-11.2613
▁pdf	-11.2613
▁scotia	-11.2613
▁drake	-11.2615
▁resid	-11.2615
▁variable	-11.2616
▁bubble	-11.2616
▁xena	-11.2617
gui	-11.2623
▁bates	-11.2625
▁amadeu	-11.2626
active	-11.2633
▁yes	-11.2636
iers	-11.2642
▁juliet	-11.2642
▁lions	-11.2644
▁mast	-11.2645
▁observer	-11.2654
▁tire	-11.2657
▁segments	-11.2657
▁counted	-11.2668
▁mysterio	-11.267
▁overthrow	-11.267
▁miguel	-11.267
▁ladder	-11.267
▁lugano	-11.267
▁squid	-11.267
▁dennis	-11.267
▁freight	-11.267
▁pirates	-11.2671
bat	-11.2671
▁exploration	-11.2672
▁matrix	-11.2673
▁tobacco	-11.2675
▁lutheran	-11.2676
▁decoration	-11.2676
▁1803	-11.2677
▁dependent	-11.2679
▁1817	-11.2684
osaurus	-11.2685
▁predator	-11.2686
unes	-11.2687
view	-11.2692
▁licens	-11.2692
▁loved	-11.2694
▁jesse	-11.2695
▁thanks	-11.2696
▁cra	-11.2696
▁1835	-11.2697
ped	-11.2704
▁laura	-11.2711
▁cher	-11.2712
▁chip	-11.2714
▁colon	-11.2715
written	-11.2715
▁beam	-11.2717
nas	-11.272
ryl	-11.2723
▁niger	-11.2726
▁dismiss	-11.2727
▁emphasis	-11.2727
▁holocaust	-11.2727
▁technologies	-11.2727
▁valais	-11.2727
▁flour	-11.2727
▁welcome	-11.2727
▁venom	-11.2727
▁resurrection	-11.2728
▁disorders	-11.2729
▁grandmother	-11.2729
▁textile	-11.2729
▁friendship	-11.273
▁masses	-11.273
▁1825	-11.2734
away	-11.2734
▁lem	-11.2735
hap	-11.2736
▁chapters	-11.2738
▁forum	-11.2739
▁marth	-11.2739
▁thrash	-11.2743
▁wy	-11.2743
▁declin	-11.2744
kenneth	-11.2745
▁riots	-11.2745
▁pod	-11.2747
▁gh	-11.2747
▁gale	-11.2748
▁portland	-11.2751
▁beaches	-11.2752
▁metre	-11.2757
▁poets	-11.2757
minute	-11.2759
▁autonom	-11.2761
▁habitats	-11.2766
▁rus	-11.2768
▁dimensions	-11.2768
▁slovenia	-11.2769
▁rub	-11.277
▁promis	-11.2772
▁agents	-11.2774
▁broadwa	-11.2776
800	-11.2781
▁tl	-11.2781
▁excellent	-11.2784
▁mecklenburg	-11.2784
▁nebraska	-11.2784
▁stuttgart	-11.2784
▁meadow	-11.2784
▁summit	-11.2785
▁configuration	-11.2785
▁exposure	-11.2785
▁hannibal	-11.2786
▁pabl	-11.2786
▁workshop	-11.2786
▁reviv	-11.2786
▁width	-11.2787
▁infra	-11.2789
▁margin	-11.279
▁1843	-11.2791
▁eugene	-11.2791
▁veteran	-11.2792
▁observation	-11.2793
mund	-11.2796
▁burke	-11.2806
▁wan	-11.2807
▁bash	-11.2807
rius	-11.2808
▁butterfl	-11.2811
▁berry	-11.2811
▁roma	-11.2812
▁ducks	-11.2812
tom	-11.2818
▁kom	-11.282
kins	-11.2822
▁sid	-11.2829
▁franc	-11.2831
▁partners	-11.2833
▁magn	-11.2834
▁maha	-11.2837
▁revenue	-11.2842
▁saffron	-11.2842
▁caucasus	-11.2842
▁licence	-11.2842
▁screenplay	-11.2842
▁diagram	-11.2842
▁sauber	-11.2842
▁beverly	-11.2843
borne	-11.2843
▁guards	-11.2844
▁girlfriend	-11.2845
▁electoral	-11.2848
chan	-11.2849
▁czechoslovakia	-11.2851
▁hun	-11.2852
▁128	-11.2853
▁sv	-11.2856
right	-11.2859
rank	-11.2859
▁cpu	-11.2861
▁dialects	-11.2863
cles	-11.2863
▁lunar	-11.2864
▁lulu	-11.2867
▁prais	-11.2867
▁dubb	-11.2868
▁postal	-11.287
▁gerald	-11.2873
1996	-11.2876
ites	-11.2879
▁option	-11.288
▁prefer	-11.2888
▁200000	-11.2889
▁flu	-11.289
▁ratings	-11.2891
▁hosting	-11.2895
▁recovery	-11.2896
▁pregnan	-11.2899
▁paradise	-11.29
▁adrian	-11.29
rate	-11.2901
▁click	-11.2901
▁gem	-11.2901
▁electronics	-11.2902
▁montana	-11.2903
▁racial	-11.2904
▁objective	-11.2909
▁penguin	-11.2911
▁timor	-11.2911
▁carnivor	-11.2911
▁panda	-11.2917
▁demon	-11.2918
▁earthquakes	-11.292
▁stimul	-11.2923
▁aug	-11.2928
ido	-11.2929
▁lance	-11.2935
▁waiting	-11.2939
▁stor	-11.2943
▁ia	-11.2943
▁nepal	-11.2944
▁blend	-11.2956
▁centres	-11.2956
▁indicat	-11.2957
cast	-11.2958
▁clown	-11.2959
▁aztec	-11.2959
▁karachi	-11.2959
▁basque	-11.296
▁britten	-11.2961
▁considerably	-11.2962
endorf	-11.2963
▁1833	-11.2965
▁bran	-11.2966
▁legislation	-11.2971
▁gathering	-11.2971
▁infant	-11.2972
baldwin	-11.2973
ency	-11.2974
▁terrorist	-11.2976
▁pierce	-11.2977
100	-11.298
▁feeding	-11.298
chester	-11.2984
itch	-11.2986
▁brands	-11.2987
▁shak	-11.2987
force	-11.2989
▁transmitt	-11.299
▁bro	-11.299
▁tes	-11.2992
▁talks	-11.2993
ampton	-11.3004
cle	-11.3009
▁caliph	-11.3017
▁gig	-11.3017
▁mclaren	-11.3018
▁skyscraper	-11.3018
▁ncaa	-11.3018
▁oc	-11.3018
▁examination	-11.3018
▁monaco	-11.3018
▁framework	-11.3018
▁rou	-11.3019
▁reptiles	-11.302
▁dayton	-11.3021
▁quot	-11.3022
▁lyon	-11.3023
▁travels	-11.3025
▁woody	-11.3028
▁abel	-11.3029
▁affair	-11.3031
▁honors	-11.3034
▁lowland	-11.3039
▁siberia	-11.3042
▁tables	-11.3047
▁hawks	-11.3047
▁stefan	-11.3049
▁proto	-11.305
▁ears	-11.3051
▁midland	-11.3052
city	-11.3052
▁rever	-11.3064
▁lamp	-11.3066
▁merging	-11.3067
odont	-11.3067
quin	-11.3068
▁blog	-11.3072
▁advocate	-11.3072
▁constantinople	-11.3077
▁wisdom	-11.3077
▁prompt	-11.3077
▁aviation	-11.3077
▁kosov	-11.3077
▁glory	-11.3077
▁guinness	-11.3078
▁filter	-11.3078
▁transformation	-11.3081
▁barn	-11.3086
▁bunker	-11.3086
▁mada	-11.3086
▁naturalist	-11.3088
▁worm	-11.3088
onia	-11.309
▁ul	-11.3091
taka	-11.3093
▁photographs	-11.3098
▁brom	-11.3101
▁terra	-11.3103
▁1809	-11.3105
▁sahara	-11.3105
▁sieg	-11.3105
▁170	-11.311
pakhtunkhwa	-11.3111
1997	-11.3112
▁andreas	-11.3114
▁1806	-11.3117
nus	-11.3118
▁nara	-11.3119
▁publishers	-11.312
▁wilm	-11.3122
▁vera	-11.3125
▁punt	-11.3126
▁burg	-11.3127
▁qa	-11.313
▁pulled	-11.3131
iel	-11.3131
▁burgund	-11.3132
ander	-11.3132
▁mak	-11.3132
▁comprehensive	-11.3136
▁enzyme	-11.3136
▁vacuum	-11.3136
▁reagan	-11.3136
▁africanamerican	-11.3139
▁batter	-11.314
▁metroid	-11.314
▁culminat	-11.3142
▁hung	-11.3143
▁unitary	-11.3148
▁fix	-11.3151
▁nathan	-11.3158
▁carr	-11.316
▁burns	-11.316
windsor	-11.3161
ault	-11.3161
bor	-11.3161
▁valleys	-11.3162
▁bundes	-11.3164
▁rais	-11.3165
eh	-11.3166
hee	-11.317
▁holes	-11.3173
▁hughe	-11.3175
angry	-11.3176
▁drinks	-11.3177
yard	-11.3177
peg	-11.3178
▁dw	-11.3178
▁350	-11.3179
chuan	-11.318
▁item	-11.3183
▁dimension	-11.3186
iki	-11.3187
verse	-11.3194
▁gor	-11.3194
▁horizon	-11.3196
▁bismarck	-11.3196
▁tanzania	-11.3196
▁rhodes	-11.3196
▁clerk	-11.3197
▁edible	-11.3197
lingen	-11.3197
▁knife	-11.3197
▁balloon	-11.3198
▁injuries	-11.3198
▁herald	-11.3198
▁ioc	-11.3199
▁pray	-11.32
▁landing	-11.3202
iro	-11.3204
half	-11.3205
▁geyser	-11.3209
▁julia	-11.3211
▁102	-11.3211
▁unix	-11.3212
▁hyde	-11.3212
▁mountainous	-11.3212
▁venue	-11.3213
▁lizard	-11.3214
▁reduc	-11.3217
▁lige	-11.322
▁pornograph	-11.322
▁feather	-11.3221
ept	-11.3224
▁cantons	-11.3226
▁plata	-11.323
▁undergo	-11.3241
▁mei	-11.3243
▁reside	-11.3244
▁rates	-11.3246
▁pond	-11.325
▁traged	-11.3253
▁montgomery	-11.3256
▁wehrmacht	-11.3256
▁adelaide	-11.3256
▁conceiv	-11.3256
▁devastat	-11.3256
▁evangelical	-11.3256
▁vapor	-11.3257
▁embass	-11.3257
▁crazy	-11.3257
▁warwickshire	-11.3257
▁rachel	-11.3257
▁fortified	-11.3257
▁wireless	-11.3258
▁faithful	-11.3258
▁airplane	-11.326
▁nad	-11.3262
▁1770	-11.3263
▁boris	-11.3264
▁pawn	-11.3265
phe	-11.3265
lau	-11.3267
▁solutions	-11.3267
▁bog	-11.3271
rock	-11.3271
▁papua	-11.3276
▁spark	-11.3283
ische	-11.3284
orient	-11.3285
▁chest	-11.3288
▁thorn	-11.3294
▁monk	-11.3295
nz	-11.3296
▁000	-11.3297
isch	-11.3301
▁regulations	-11.3304
suke	-11.3311
400	-11.3312
▁benedict	-11.3313
▁gur	-11.3313
▁twins	-11.3314
▁92	-11.3315
▁pac	-11.3316
▁agencies	-11.3317
▁monthly	-11.3317
phy	-11.3317
▁maroon	-11.3318
▁ark	-11.332
▁rom	-11.3321
▁onwards	-11.3321
▁explore	-11.3322
▁camill	-11.3323
▁rookie	-11.3325
▁larvae	-11.3325
morph	-11.3325
▁developers	-11.3326
▁anger	-11.3326
▁gorge	-11.3328
oke	-11.3328
som	-11.3329
▁dow	-11.3329
▁dem	-11.3337
▁winni	-11.3338
▁rereleas	-11.334
ali	-11.3341
▁hood	-11.3342
speak	-11.3345
▁mato	-11.3347
ascar	-11.3348
▁influences	-11.3349
lus	-11.3349
▁raven	-11.3349
ological	-11.3353
zai	-11.3355
▁penny	-11.3358
▁lords	-11.3359
▁profession	-11.3361
▁gad	-11.3364
▁carme	-11.3365
▁deni	-11.3367
lag	-11.3369
present	-11.3372
▁cambrian	-11.3378
▁explosive	-11.3378
▁judgment	-11.3378
▁vegetation	-11.3378
▁advertisement	-11.3378
▁rotat	-11.3381
▁rein	-11.3382
▁pas	-11.3383
▁1792	-11.3383
▁attendance	-11.3384
sey	-11.3384
▁thi	-11.3384
▁momentum	-11.3386
▁victorie	-11.3386
▁cri	-11.3392
▁encompass	-11.3393
qualified	-11.3393
▁olympiad	-11.3396
andro	-11.3396
▁xvi	-11.3397
gna	-11.3401
▁classics	-11.3402
stream	-11.3408
▁wb	-11.3408
▁keen	-11.3409
▁enable	-11.341
▁lilo	-11.3411
▁carne	-11.3414
▁vesta	-11.3415
cker	-11.3417
▁discoverie	-11.3417
rang	-11.3425
▁mw	-11.3428
gny	-11.3429
haven	-11.3429
▁eisen	-11.343
ception	-11.3432
▁grid	-11.3433
gas	-11.3434
etto	-11.3434
▁abstract	-11.3435
▁demo	-11.3437
▁amherst	-11.3439
▁hummingbird	-11.3439
▁slipknot	-11.3439
▁theologian	-11.3439
▁explicit	-11.3439
▁marilyn	-11.3439
▁derivative	-11.344
▁boom	-11.3441
▁constable	-11.3441
▁valid	-11.3443
trop	-11.3443
▁fusion	-11.3444
▁1819	-11.3445
▁prehistoric	-11.3445
▁hanging	-11.345
▁ethic	-11.3454
▁concepts	-11.3455
▁translations	-11.3456
pal	-11.3456
▁busies	-11.3461
elles	-11.3471
▁tide	-11.3471
▁commemorat	-11.3472
ome	-11.3474
tier	-11.3475
▁creed	-11.348
▁lizards	-11.3483
evich	-11.3484
▁bohemia	-11.3486
▁pitt	-11.3486
iba	-11.3489
▁rhode	-11.349
▁badenw	-11.3495
▁dissolve	-11.3496
ants	-11.3497
▁sala	-11.3498
▁holly	-11.3499
▁plum	-11.35
7000	-11.35
▁antiquity	-11.3501
▁pichilemu	-11.3501
▁sheppard	-11.3501
▁relativity	-11.3501
▁obvious	-11.3501
▁gua	-11.3501
▁jennifer	-11.3501
osis	-11.3501
▁nevertheless	-11.3501
▁swim	-11.3502
▁grenad	-11.3502
▁ministers	-11.3502
▁canyon	-11.3503
▁thor	-11.351
▁brandon	-11.3511
▁blake	-11.3512
▁powell	-11.3516
▁astro	-11.3517
▁organize	-11.3517
▁marcel	-11.3518
▁pel	-11.3518
▁2012	-11.3518
▁collector	-11.3521
▁venture	-11.3522
▁barr	-11.3528
chy	-11.3531
▁saxon	-11.3531
▁homeless	-11.3533
▁macro	-11.3544
▁yearly	-11.3551
▁teenage	-11.3552
igne	-11.3552
▁telling	-11.3554
▁valve	-11.3554
▁joey	-11.3554
▁minus	-11.3558
▁diagnos	-11.3559
▁wesley	-11.3561
▁ace	-11.3562
▁arithmetic	-11.3563
▁perennial	-11.3563
▁tiberius	-11.3563
▁treasury	-11.3563
▁dresden	-11.3563
▁mystery	-11.3563
▁theological	-11.3564
▁caliphate	-11.3564
▁blair	-11.3565
▁toilet	-11.3566
▁involvement	-11.3567
▁acres	-11.3567
▁clarke	-11.3568
▁weber	-11.3568
▁1.2	-11.3568
▁referee	-11.3572
▁ox	-11.3575
▁initiat	-11.3575
iva	-11.3576
tari	-11.3578
lets	-11.3578
▁xp	-11.3579
▁salad	-11.3582
▁survival	-11.3584
▁vital	-11.3585
000000	-11.3585
▁informal	-11.3586
▁midwest	-11.3587
▁metallica	-11.3587
▁modest	-11.3588
▁charm	-11.3594
▁contributor	-11.3594
▁dealing	-11.3595
ema	-11.3598
▁rum	-11.3602
inlaw	-11.3603
▁nut	-11.3603
rous	-11.3607
gee	-11.3613
hair	-11.3614
▁trent	-11.3615
liest	-11.3617
borough	-11.3617
▁vertebrates	-11.3619
▁calculat	-11.3619
▁magazines	-11.3623
▁intelligen	-11.3623
▁balochist	-11.3626
▁carnival	-11.3626
▁elaborate	-11.3626
▁montenegro	-11.3626
flat	-11.3626
▁einstein	-11.3626
▁sermon	-11.3626
▁humor	-11.3627
▁freak	-11.3627
ides	-11.3628
▁lars	-11.3631
▁zeta	-11.3631
▁jackie	-11.3632
ld	-11.3633
▁reformation	-11.3634
▁1829	-11.3634
tanbul	-11.3635
lang	-11.3637
▁satan	-11.3637
▁sonata	-11.3638
▁communicate	-11.3638
tran	-11.3638
▁pagan	-11.3639
▁profit	-11.3639
▁kra	-11.3643
▁handel	-11.3646
even	-11.3648
agh	-11.365
▁integer	-11.3654
▁sled	-11.3656
ave	-11.3656
▁timber	-11.3657
▁explains	-11.3658
▁fitte	-11.3663
organic	-11.3663
▁worker	-11.3664
alia	-11.3664
▁dreams	-11.3669
▁1.4	-11.3672
▁operational	-11.3672
berry	-11.3681
▁popularly	-11.3687
▁bases	-11.3688
▁cromwell	-11.3689
▁habsburg	-11.3689
▁yokohama	-11.3689
▁ecosystem	-11.3689
▁bedford	-11.3689
▁timoth	-11.3689
▁legitimate	-11.3689
▁flesh	-11.3689
▁antioch	-11.369
▁inheritance	-11.369
cot	-11.3692
nu	-11.3692
▁springfield	-11.3694
▁maiden	-11.3694
▁europa	-11.3696
ques	-11.3703
▁cardamom	-11.371
▁tun	-11.3717
etic	-11.3718
▁hymn	-11.3718
▁indians	-11.3718
iat	-11.3718
▁stud	-11.372
cation	-11.3722
▁dolphins	-11.3722
▁quest	-11.3727
dp	-11.3728
1998	-11.3728
▁container	-11.3729
uro	-11.373
anda	-11.3735
rom	-11.3738
rov	-11.3741
dai	-11.3742
▁inform	-11.3743
▁nurse	-11.375
▁abilities	-11.3752
▁discontinu	-11.3752
▁uranium	-11.3752
▁wyoming	-11.3752
▁remake	-11.3752
▁revenge	-11.3752
▁giusepp	-11.3752
▁chassis	-11.3752
mozilla	-11.3752
▁jessica	-11.3752
▁trunk	-11.3752
▁plague	-11.3752
▁pour	-11.3753
kot	-11.3754
▁caroline	-11.3754
▁installment	-11.3756
▁resignation	-11.3757
▁greenhouse	-11.3759
▁spaces	-11.376
▁gabrielle	-11.3761
▁orient	-11.3763
▁sink	-11.3776
dorf	-11.3778
▁xii	-11.3787
▁marino	-11.3789
▁powered	-11.3789
▁myth	-11.379
▁projection	-11.379
iac	-11.3793
▁farmers	-11.3795
eman	-11.3795
nate	-11.3804
▁kenn	-11.3808
▁brush	-11.3808
▁sei	-11.3813
▁cycling	-11.3815
▁imaginar	-11.3815
▁kuwait	-11.3815
▁spectator	-11.3815
▁swallow	-11.3815
▁prefix	-11.3815
▁recruit	-11.3815
▁empty	-11.3816
▁500000	-11.3816
▁quark	-11.3816
▁distant	-11.3816
▁generic	-11.3816
▁grape	-11.3817
▁decree	-11.3817
▁gateway	-11.3817
▁cube	-11.3818
▁standup	-11.382
▁axe	-11.3821
gni	-11.3822
▁1776	-11.3823
1000	-11.3823
▁parma	-11.3823
eli	-11.3824
ender	-11.3824
▁labels	-11.3826
▁dock	-11.3829
▁breaks	-11.383
▁merit	-11.3835
▁jamie	-11.3837
▁suffering	-11.3837
zh	-11.3839
▁provider	-11.3839
▁hotels	-11.3843
▁aside	-11.3847
going	-11.3848
▁benefit	-11.3849
strong	-11.3857
▁interact	-11.3858
▁emily	-11.3862
▁stating	-11.3864
1994	-11.3865
▁dig	-11.3869
▁klein	-11.3871
▁libya	-11.3871
▁maritime	-11.3871
▁moor	-11.3873
arra	-11.3875
▁bomber	-11.3877
order	-11.3879
▁autobiography	-11.388
▁condemn	-11.388
▁crocodile	-11.388
▁herzegovina	-11.388
▁sulfide	-11.388
▁kyoto	-11.388
▁emigrat	-11.388
▁ammonia	-11.388
▁array	-11.3881
▁midnight	-11.3881
▁knee	-11.3882
▁grandmaster	-11.3882
▁superstar	-11.3883
▁hail	-11.3883
▁peaceful	-11.3885
▁alpine	-11.3886
▁restriction	-11.3887
▁nicole	-11.3887
▁nero	-11.3891
▁permitt	-11.3891
hat	-11.3892
▁terrier	-11.3894
▁ashley	-11.3898
▁tests	-11.39
dice	-11.39
▁jets	-11.3906
▁lima	-11.3906
▁daytime	-11.3909
▁kell	-11.3911
▁yard	-11.3911
bul	-11.3911
▁flames	-11.3915
▁pointed	-11.3918
spherical	-11.3919
▁tooth	-11.3919
▁ck	-11.3923
▁polit	-11.3925
zel	-11.3926
▁magnet	-11.3927
▁gust	-11.3929
▁clara	-11.3931
▁invade	-11.3932
▁broadcaster	-11.3934
▁fatal	-11.3936
▁beans	-11.3938
▁settings	-11.394
▁inaugura	-11.394
auc	-11.394
▁porto	-11.3941
related	-11.3941
cover	-11.3943
ouse	-11.3944
▁ceremonies	-11.3944
▁scratch	-11.3944
▁parody	-11.3944
▁pancake	-11.3944
▁honda	-11.3945
▁absinthe	-11.3948
uel	-11.3948
▁dumb	-11.3948
▁susanna	-11.3948
▁dunde	-11.3949
▁situations	-11.3951
ignan	-11.3952
▁templates	-11.3953
▁highlight	-11.3956
yar	-11.3957
▁bold	-11.3958
▁schn	-11.3959
oire	-11.3961
▁senators	-11.3963
▁mt	-11.3965
▁hut	-11.3965
▁flor	-11.397
▁specialist	-11.3972
▁portal	-11.3977
▁printer	-11.3978
▁assume	-11.3981
ucci	-11.3984
nitz	-11.3985
adi	-11.3987
▁inch	-11.399
200	-11.3991
stow	-11.3991
color	-11.3996
▁cookie	-11.3996
▁haute	-11.4006
iri	-11.4007
▁brussels	-11.4009
▁cavalry	-11.4009
▁communion	-11.4009
▁etymology	-11.4009
▁motorcycle	-11.4009
▁narnia	-11.4009
▁liturg	-11.4009
▁sikh	-11.4011
▁marshal	-11.4013
ose	-11.4017
▁tight	-11.4018
▁tub	-11.4024
▁differential	-11.4024
▁dynamic	-11.4025
bh	-11.403
▁50000	-11.4032
press	-11.4034
▁nights	-11.4035
sv	-11.4035
ech	-11.404
▁ira	-11.4041
borg	-11.4045
▁lithuanian	-11.4047
▁ibm	-11.4048
▁eruption	-11.4051
1995	-11.4051
▁divorce	-11.4053
esque	-11.4054
llery	-11.4058
nard	-11.4058
llen	-11.4061
▁mose	-11.4062
fold	-11.4068
▁erupt	-11.4071
▁anglosaxon	-11.4074
▁bologna	-11.4074
▁catalonia	-11.4074
▁gettysburg	-11.4074
▁triassic	-11.4074
▁ancestry	-11.4074
▁tribute	-11.4074
▁vatican	-11.4074
▁cryptographic	-11.4074
▁surpass	-11.4075
▁thunderstorm	-11.4075
▁kitchen	-11.4075
▁aquatic	-11.4076
▁calcio	-11.4076
▁impos	-11.4076
▁careful	-11.4077
▁abb	-11.4079
▁bari	-11.408
▁jail	-11.4081
▁1797	-11.4081
▁1795	-11.4082
▁directto	-11.4086
▁destiny	-11.4088
last	-11.4089
olga	-11.4093
▁rica	-11.4095
▁perm	-11.4097
▁versu	-11.4099
▁tama	-11.4104
gno	-11.4104
▁cel	-11.4109
cock	-11.4109
▁heroes	-11.4112
▁essays	-11.4112
▁thread	-11.4115
▁athlete	-11.4115
new	-11.4118
▁guitars	-11.4119
habi	-11.412
rap	-11.4124
▁button	-11.4127
▁collecting	-11.4132
sac	-11.4133
▁logarithm	-11.4135
▁bearing	-11.4138
▁complicat	-11.414
▁undergraduate	-11.414
▁melody	-11.414
▁architectural	-11.414
▁ecological	-11.414
▁departure	-11.4141
glass	-11.4141
▁vir	-11.4142
▁geology	-11.4143
▁perception	-11.4143
▁reception	-11.4143
▁praise	-11.4143
▁bremen	-11.4145
▁fsf	-11.4146
hei	-11.4146
▁alfonso	-11.415
▁resist	-11.415
▁planetary	-11.4152
▁monarchs	-11.4153
▁belle	-11.4154
▁beech	-11.4154
bois	-11.4159
▁dirty	-11.4162
inae	-11.4165
▁fate	-11.4168
tha	-11.4173
▁emperors	-11.4174
bakh	-11.4175
▁battery	-11.4176
▁dragons	-11.4179
▁photograph	-11.4182
▁urg	-11.4182
pri	-11.4189
▁clo	-11.4189
▁oat	-11.4195
pat	-11.4197
▁bavarian	-11.42
▁uruguay	-11.4202
▁goat	-11.4203
▁festivals	-11.4205
▁chemicals	-11.4205
▁competitive	-11.4206
▁diocese	-11.4206
▁incorrect	-11.4206
▁reservoir	-11.4206
▁placing	-11.4206
tigious	-11.4207
▁wikimedia	-11.4207
▁narrative	-11.4207
▁brigade	-11.4207
▁antenna	-11.4207
▁renewable	-11.4208
▁sexually	-11.4208
▁bloom	-11.4208
▁slopes	-11.4208
▁grind	-11.4209
▁pest	-11.4213
oro	-11.4217
▁09	-11.4217
▁1816	-11.4221
▁everyday	-11.4221
▁cleaning	-11.4228
otto	-11.423
▁circumstances	-11.4232
▁diamonds	-11.4234
hood	-11.4236
▁jer	-11.4238
▁rez	-11.4239
▁qur	-11.424
▁emotional	-11.4244
▁formats	-11.4244
bc	-11.4245
▁varying	-11.425
▁aspect	-11.425
▁monks	-11.4253
▁chronic	-11.4255
▁indoor	-11.4255
▁bred	-11.4255
▁slash	-11.4256
▁arrow	-11.4256
▁sue	-11.4257
auer	-11.4261
4000	-11.4264
▁tropic	-11.4266
▁pursue	-11.4269
▁evacuat	-11.4269
▁rim	-11.427
▁1810	-11.4272
tion	-11.4272
▁danube	-11.4273
▁helicopter	-11.4273
▁incarnation	-11.4273
▁stomach	-11.4273
▁tulsa	-11.4273
▁brittany	-11.4273
▁catalan	-11.4273
▁mersey	-11.4273
▁motorsport	-11.4274
▁suborder	-11.4274
▁vermont	-11.4274
▁panic	-11.4275
▁stevens	-11.4281
▁taxe	-11.4282
▁locally	-11.4282
▁circa	-11.4283
▁magical	-11.4283
▁sprint	-11.4284
▁roberts	-11.4291
▁practiced	-11.4295
▁stoke	-11.4295
▁noun	-11.4297
▁georgian	-11.4297
uku	-11.4298
mia	-11.4299
▁crest	-11.4302
▁performers	-11.4303
▁prices	-11.4305
aldo	-11.4307
▁linda	-11.4307
▁definitions	-11.4308
odon	-11.431
rest	-11.4319
general	-11.4321
▁stall	-11.4321
▁concentrate	-11.4321
▁rid	-11.4324
▁109	-11.4325
▁ming	-11.4328
▁emma	-11.4338
▁roller	-11.4338
▁leicester	-11.4339
▁curitiba	-11.434
▁oconnor	-11.434
▁supplement	-11.434
▁lithium	-11.434
▁warfare	-11.434
▁libraries	-11.434
▁antoine	-11.4341
▁serenit	-11.4342
▁stalin	-11.4342
▁exceed	-11.4345
▁gravitational	-11.4346
▁bean	-11.4348
▁regardless	-11.4348
▁1788	-11.4349
▁pupils	-11.435
▁enclos	-11.435
▁mysterious	-11.4351
▁motto	-11.4352
▁salis	-11.4355
▁cone	-11.4358
loo	-11.436
▁30000	-11.4367
▁shapes	-11.4368
▁0.3	-11.437
▁1.8	-11.4374
▁pisa	-11.4376
▁demonstrat	-11.4377
▁goth	-11.4383
▁electromagnet	-11.4383
▁103	-11.4384
▁viva	-11.4386
▁schi	-11.4387
▁82	-11.4388
▁interchange	-11.4391
▁prepare	-11.4395
▁irc	-11.4395
▁bombs	-11.4399
▁poorly	-11.4403
▁1.3	-11.4405
▁introduc	-11.4405
▁dei	-11.4405
▁crawford	-11.4408
▁enormous	-11.4408
▁unfortunate	-11.4408
▁grunge	-11.4408
▁stafford	-11.4408
▁canucks	-11.4408
▁clare	-11.441
▁weld	-11.441
▁reichs	-11.4412
▁richter	-11.4415
▁customers	-11.4417
▁directors	-11.4417
▁presents	-11.442
▁lar	-11.4421
▁nationalist	-11.4422
▁cellist	-11.4424
▁lombardy	-11.4424
▁vs	-11.4426
▁elite	-11.4426
▁corr	-11.4427
▁hate	-11.4428
▁updat	-11.4431
nie	-11.4434
izing	-11.4436
ague	-11.4437
▁subcontinent	-11.4439
▁rooms	-11.4442
8000	-11.4444
▁consul	-11.4445
▁shooter	-11.4448
arts	-11.4448
sseldorf	-11.445
▁sunni	-11.4452
▁arche	-11.4454
▁metallic	-11.4454
▁membrane	-11.4456
went	-11.446
▁collaborat	-11.446
▁veterans	-11.4467
▁riot	-11.4468
take	-11.4468
uce	-11.4469
zin	-11.447
▁impress	-11.4472
tta	-11.4473
rium	-11.4473
▁dorm	-11.4475
▁zur	-11.4475
▁consensu	-11.4476
▁temporarily	-11.4476
▁throat	-11.4476
▁pseudo	-11.4476
▁counterpart	-11.4476
▁mickey	-11.4477
▁solomon	-11.4478
owned	-11.4479
▁unrelated	-11.4479
▁ike	-11.4479
▁abundant	-11.4481
▁flute	-11.4481
▁sm	-11.4485
▁lifestyle	-11.4486
▁phillips	-11.4486
▁1813	-11.4487
▁successive	-11.4488
▁ek	-11.4492
▁cock	-11.4496
▁complet	-11.4497
aku	-11.4499
▁ballad	-11.4503
tone	-11.4504
▁deaf	-11.4506
▁critically	-11.4508
nch	-11.4508
▁gb	-11.4509
▁nat	-11.4509
▁clause	-11.451
▁1805	-11.4511
ago	-11.4511
▁banner	-11.4513
▁deity	-11.4516
wo	-11.4518
rwich	-11.4519
onic	-11.4529
▁gau	-11.4531
▁elevat	-11.4534
uli	-11.4534
▁sq	-11.4535
word	-11.4537
cell	-11.454
▁courses	-11.4541
apest	-11.4542
▁marsupial	-11.4544
▁michelangelo	-11.4544
▁summary	-11.4544
▁epistle	-11.4544
▁typhoon	-11.4544
▁confusion	-11.4544
▁inscription	-11.4544
▁funnel	-11.4545
▁sandwich	-11.4545
gamecube	-11.4545
▁lancaster	-11.4545
▁interactive	-11.4546
▁tristan	-11.4546
▁challenged	-11.4548
▁cannon	-11.4548
▁belarus	-11.4548
▁staple	-11.4551
▁nhc	-11.4552
▁thil	-11.4557
▁partial	-11.4558
▁convicts	-11.4558
▁cadet	-11.4558
▁intention	-11.4559
▁dec	-11.456
▁gotha	-11.4561
▁bos	-11.4562
▁ascend	-11.4562
▁dub	-11.4562
fall	-11.4565
▁achievements	-11.4568
▁sap	-11.4569
hak	-11.4573
▁mello	-11.4574
▁bars	-11.4577
▁strat	-11.4579
but	-11.4581
pra	-11.4583
▁mn	-11.4587
▁respective	-11.4588
▁curv	-11.4589
▁guin	-11.4589
▁justin	-11.459
1980	-11.4591
▁requirements	-11.4593
▁wheels	-11.4595
mbr	-11.4598
tail	-11.4601
▁93	-11.4603
▁domesticat	-11.4609
▁equations	-11.4611
▁archaeologist	-11.4613
▁brunswick	-11.4613
▁bmw	-11.4613
▁memorie	-11.4613
▁mughal	-11.4613
▁figaro	-11.4613
▁quantities	-11.4613
▁fraction	-11.4614
▁manila	-11.4614
▁pregnancy	-11.4614
▁announcement	-11.4614
▁reconstruction	-11.4616
▁compare	-11.4618
▁assert	-11.4618
▁masa	-11.4619
▁bulk	-11.4619
▁realm	-11.462
num	-11.4622
▁titus	-11.4623
▁peach	-11.4624
▁chains	-11.4626
▁render	-11.4626
illon	-11.4626
bluegrass	-11.4627
▁missionary	-11.4629
iga	-11.4631
▁upgrad	-11.4631
nin	-11.4631
▁fry	-11.4635
▁cour	-11.4636
▁trailer	-11.4636
▁sect	-11.4637
arian	-11.4638
▁complexity	-11.4638
▁dale	-11.4638
▁saga	-11.464
▁graf	-11.464
iszt	-11.4647
jah	-11.4649
▁counting	-11.4654
▁kingdoms	-11.4657
league	-11.4662
▁nuclei	-11.4664
▁shut	-11.4669
▁hello	-11.4669
lum	-11.467
▁resource	-11.467
▁realiz	-11.4672
mara	-11.4678
▁attractions	-11.4682
▁cyclist	-11.4683
▁decisive	-11.4683
▁youtube	-11.4683
▁reduction	-11.4684
▁mormon	-11.4684
▁banjo	-11.4685
▁judicial	-11.4685
▁knut	-11.4686
▁norwood	-11.4687
▁sensitive	-11.4688
▁uni	-11.4691
lton	-11.4698
▁lonely	-11.4698
▁ois	-11.4699
▁nuts	-11.4701
▁infinite	-11.4702
▁inhabit	-11.4703
▁1.0	-11.4705
▁1818	-11.4707
▁forcing	-11.4711
▁update	-11.4711
▁escap	-11.4713
hop	-11.4714
▁augusta	-11.4715
▁tons	-11.4716
▁photography	-11.4716
hard	-11.472
▁towers	-11.472
▁mk	-11.4729
▁hubb	-11.4734
▁145	-11.4734
pc	-11.4737
▁proven	-11.4737
▁surf	-11.4739
▁slang	-11.4742
▁drov	-11.4743
place	-11.4746
tailed	-11.4748
cci	-11.4751
▁battalion	-11.4753
▁bahrain	-11.4753
▁submarine	-11.4753
▁demonstration	-11.4757
▁theorist	-11.4758
▁estates	-11.4759
▁favorable	-11.4759
sbury	-11.4763
▁zip	-11.4765
▁gut	-11.4766
▁1.1	-11.4768
page	-11.4772
▁connections	-11.4775
hus	-11.4778
▁dishes	-11.4779
fort	-11.4779
▁substitute	-11.478
▁violet	-11.4781
▁07	-11.4783
▁countryside	-11.4783
▁yankees	-11.4784
▁byron	-11.4786
dog	-11.4791
▁delivery	-11.4792
▁brig	-11.4794
dian	-11.4795
▁camel	-11.4797
▁shoes	-11.4799
▁chun	-11.48
▁nicola	-11.48
nat	-11.4801
1992	-11.4804
nadu	-11.4811
cel	-11.4811
▁protocols	-11.4812
▁josh	-11.4814
▁doll	-11.4816
▁estuar	-11.482
▁clarinet	-11.4821
▁twelfth	-11.4823
▁gnome	-11.4823
▁nacional	-11.4823
▁lahore	-11.4823
▁conspirac	-11.4823
▁saxe	-11.4823
▁greenwich	-11.4824
▁travelcard	-11.4825
▁jericho	-11.4826
▁builder	-11.4827
▁hinduism	-11.483
▁ric	-11.483
▁erectus	-11.4837
atory	-11.484
▁syr	-11.4842
▁patrol	-11.4846
▁cage	-11.4848
▁kot	-11.4848
▁watche	-11.4853
▁paran	-11.4854
▁opus	-11.4855
▁consult	-11.4864
▁mata	-11.4866
green	-11.4868
storm	-11.4874
▁lp	-11.4875
▁node	-11.4875
bell	-11.488
▁penguins	-11.4882
▁casp	-11.4884
bank	-11.4887
▁pupil	-11.4888
▁pub	-11.4892
gri	-11.4892
▁holder	-11.4893
▁adjective	-11.4894
▁arsenic	-11.4894
▁nutrient	-11.4894
▁certificate	-11.4894
▁iodine	-11.4894
▁coronation	-11.4894
▁dialogue	-11.4894
▁peasant	-11.4894
▁volunteers	-11.4894
▁colleague	-11.4895
▁sitting	-11.4895
▁dinner	-11.4895
▁disturb	-11.4896
▁anglia	-11.4897
▁zrich	-11.4897
▁rowling	-11.4897
▁divisin	-11.4898
▁burnham	-11.4898
▁afc	-11.4899
▁cabin	-11.4899
▁specification	-11.4906
gard	-11.4906
▁shark	-11.4909
▁botanical	-11.491
▁casal	-11.4911
▁thermodynamics	-11.4912
▁oversee	-11.4912
▁lia	-11.4918
phon	-11.4918
▁palau	-11.4918
face	-11.4919
vol	-11.4921
▁kazu	-11.4923
▁digits	-11.4923
ires	-11.4924
south	-11.4925
lson	-11.4926
▁meter	-11.4926
▁emotion	-11.4927
▁programmer	-11.493
▁badly	-11.4931
▁ml	-11.4938
member	-11.4938
cellular	-11.494
▁sequels	-11.4943
▁settle	-11.4943
▁reproduce	-11.4943
▁chester	-11.4946
▁shia	-11.4949
▁interesting	-11.4949
▁gui	-11.495
▁amber	-11.495
▁winston	-11.4955
▁roc	-11.4956
tum	-11.4957
▁invest	-11.4959
▁voter	-11.4961
▁prisoner	-11.4961
▁rent	-11.4962
▁edo	-11.4964
▁ceramic	-11.4965
▁tectonic	-11.4965
▁whig	-11.4965
▁postulate	-11.4965
▁oasis	-11.4965
▁eurovision	-11.4966
▁miranda	-11.4966
▁happi	-11.4966
▁trench	-11.4966
▁anaheim	-11.4966
▁dictator	-11.4967
▁ginger	-11.4969
igh	-11.4969
▁witt	-11.4969
▁innovation	-11.497
▁abd	-11.4971
▁turkic	-11.4973
▁diplomatic	-11.4973
iff	-11.4975
cz	-11.4975
▁fide	-11.4978
▁appoint	-11.4979
tag	-11.4982
▁depot	-11.4982
▁fab	-11.4984
yuki	-11.4987
▁yale	-11.4989
▁remark	-11.4992
▁erich	-11.4994
berger	-11.5001
▁maid	-11.5001
▁laugh	-11.5004
▁dover	-11.501
900	-11.5013
1989	-11.5014
cq	-11.5015
▁compil	-11.5021
▁battles	-11.5024
▁lim	-11.5027
▁tomato	-11.5028
table	-11.5034
eus	-11.5034
▁mutin	-11.5034
lash	-11.5036
▁messaging	-11.5037
▁sassanid	-11.5037
▁tsunami	-11.5037
▁kazakhstan	-11.5037
▁simplified	-11.5037
▁tunisia	-11.5038
▁discography	-11.5038
▁chamberlain	-11.5038
▁kidney	-11.5038
▁statute	-11.504
▁tear	-11.5041
▁underwear	-11.5042
▁beast	-11.5043
▁kiev	-11.5044
▁1787	-11.5046
▁nominations	-11.5046
▁www	-11.5047
▁1822	-11.5047
▁intensifi	-11.5048
▁magnus	-11.5049
▁corners	-11.5053
▁bees	-11.5053
▁chas	-11.5057
▁glar	-11.506
▁shane	-11.5063
▁contents	-11.5063
▁1400	-11.5065
▁adoption	-11.5067
▁fey	-11.5067
▁limb	-11.5073
▁contribute	-11.5076
arat	-11.5079
lai	-11.5081
▁dom	-11.5081
▁wario	-11.5085
1993	-11.5087
oria	-11.5088
▁mtr	-11.5088
built	-11.5089
▁traits	-11.5091
▁equally	-11.5092
vel	-11.5096
▁albania	-11.5099
▁gel	-11.5099
▁fool	-11.5099
inn	-11.51
▁astronaut	-11.511
▁belfast	-11.511
▁longitude	-11.511
▁pharaoh	-11.511
▁serpent	-11.511
▁dessert	-11.511
▁obama	-11.511
▁assembl	-11.5111
▁pilgrimage	-11.5111
▁gloss	-11.5111
▁fungi	-11.5112
▁nh	-11.5117
pet	-11.5118
chem	-11.5119
▁innocent	-11.512
▁wend	-11.5122
tam	-11.5127
lut	-11.513
▁suggestion	-11.5131
▁westward	-11.5134
▁farmer	-11.5142
▁cao	-11.5146
▁provision	-11.5148
rica	-11.5148
▁fork	-11.5152
▁contestants	-11.5152
▁bai	-11.5153
▁3.5	-11.5154
▁caf	-11.5154
▁dune	-11.5163
break	-11.5163
achi	-11.5164
▁giro	-11.5166
▁bullet	-11.5166
▁namely	-11.5168
dre	-11.5172
lee	-11.5173
▁alberto	-11.5177
▁discipline	-11.5179
▁prohibit	-11.5179
tory	-11.518
▁conservatoire	-11.5183
▁exhaust	-11.5183
▁hormone	-11.5183
▁certification	-11.5183
▁savoy	-11.5183
▁lama	-11.5183
▁adobe	-11.5184
▁torch	-11.5184
▁hypo	-11.5184
▁unter	-11.5184
▁matild	-11.5185
▁evangelist	-11.5185
western	-11.5186
▁tyne	-11.5188
gol	-11.5188
▁burgh	-11.519
nis	-11.5192
▁texture	-11.5193
▁hampton	-11.5193
▁candy	-11.5193
▁proceed	-11.5194
▁ign	-11.5195
▁tasks	-11.5197
▁swans	-11.5198
▁darling	-11.5199
▁singh	-11.5201
reg	-11.5201
▁merge	-11.5202
▁drawings	-11.5203
▁toll	-11.5204
enstein	-11.5207
▁allah	-11.5214
▁filling	-11.5215
▁hopkins	-11.5216
▁lighter	-11.5218
pec	-11.5223
erre	-11.5226
▁pil	-11.5229
vent	-11.5233
urmer	-11.5233
▁rite	-11.5234
iform	-11.5237
▁aria	-11.5243
▁sacrifice	-11.5243
▁doug	-11.5247
▁mol	-11.5249
pox	-11.525
▁temples	-11.5255
▁solv	-11.5255
▁adjust	-11.5255
ieux	-11.5256
▁mason	-11.5256
▁coefficient	-11.5256
▁crustacean	-11.5256
▁cyprus	-11.5256
▁piedmont	-11.5256
▁farthest	-11.5256
▁patriarch	-11.5256
phone	-11.5257
▁auburn	-11.5257
▁disband	-11.5257
▁haunt	-11.5257
▁ladies	-11.5257
▁shelf	-11.5257
▁finite	-11.5258
▁freud	-11.5258
▁gamma	-11.5258
▁ein	-11.5258
▁phonetic	-11.5259
▁pirate	-11.5259
▁cruise	-11.526
▁sponge	-11.5261
evi	-11.5261
▁seriously	-11.5263
▁slope	-11.5265
▁topped	-11.5266
hart	-11.5267
▁schism	-11.5268
▁rumor	-11.527
▁1838	-11.5273
not	-11.5274
ase	-11.5281
▁sept	-11.5282
residential	-11.5283
▁glenn	-11.5284
▁jule	-11.5286
▁yards	-11.5291
▁1100	-11.5295
▁privately	-11.5297
ree	-11.5298
▁casa	-11.53
beat	-11.5303
▁unions	-11.5303
hole	-11.5304
matic	-11.5306
▁bali	-11.5307
▁erik	-11.5308
▁tay	-11.5309
▁odor	-11.5309
ink	-11.5314
incorporated	-11.5319
yers	-11.5321
▁monsters	-11.5325
▁herman	-11.5326
▁pir	-11.533
▁volunteer	-11.533
▁mesopotamia	-11.533
▁phenomena	-11.533
▁raffles	-11.533
▁senegal	-11.533
▁taxonomy	-11.533
▁consolidat	-11.533
▁hazard	-11.533
▁spontaneous	-11.533
▁koror	-11.533
▁kinetic	-11.5331
▁cereal	-11.5331
▁duncan	-11.5331
▁enforcement	-11.5331
▁dairy	-11.5332
▁cherry	-11.5332
▁meanings	-11.5333
▁angels	-11.5335
▁fla	-11.5336
▁davies	-11.5337
▁birch	-11.5337
▁remarkable	-11.5343
▁1814	-11.5345
▁withdraw	-11.5347
▁fol	-11.5347
▁cyber	-11.5347
▁135	-11.5354
hin	-11.5357
▁snap	-11.5365
▁distribute	-11.5367
▁nico	-11.5368
bet	-11.5372
▁linguistics	-11.5373
▁sac	-11.5374
▁leone	-11.5376
▁arid	-11.5377
▁theodor	-11.5383
▁evolve	-11.5387
▁presid	-11.5388
▁123	-11.5391
etta	-11.5391
▁112	-11.5395
▁chao	-11.5396
▁sint	-11.5399
▁gri	-11.5403
▁jaguar	-11.5405
▁memoir	-11.5405
▁propaganda	-11.5405
▁voldemort	-11.5405
▁rafael	-11.5405
▁picca	-11.5406
▁supermarket	-11.5406
▁melodic	-11.5406
▁bombay	-11.5406
tell	-11.5407
read	-11.5408
▁sociology	-11.5408
▁parasite	-11.5408
▁metric	-11.5409
shima	-11.5413
▁amino	-11.5414
▁azad	-11.5414
cop	-11.5416
▁contribution	-11.5416
▁norton	-11.5416
▁europeans	-11.5417
▁johan	-11.5417
▁composite	-11.5418
▁entertainer	-11.5419
▁depart	-11.5421
▁cones	-11.5425
▁tubes	-11.5431
azar	-11.5434
some	-11.544
▁benefits	-11.5441
▁tissues	-11.5442
▁cop	-11.5445
ledon	-11.5446
▁roo	-11.5448
xx	-11.545
▁nem	-11.5452
vr	-11.546
zzi	-11.5463
▁varied	-11.5465
comb	-11.5467
▁seventeen	-11.547
▁tau	-11.5476
▁casual	-11.548
▁confluence	-11.548
▁etruscan	-11.548
▁intercourse	-11.548
▁komodo	-11.548
▁saskat	-11.548
▁sworn	-11.548
▁macquari	-11.548
▁minneapolis	-11.548
▁hertford	-11.548
▁textbook	-11.5482
▁intensive	-11.5483
mate	-11.5483
▁quiet	-11.5484
▁doom	-11.5487
▁lagoon	-11.5487
▁http	-11.5488
▁thriller	-11.5489
▁tenure	-11.549
▁stuff	-11.549
▁1826	-11.5491
▁gimn	-11.5494
▁alto	-11.5495
▁bent	-11.5496
saw	-11.5499
roll	-11.5501
▁bale	-11.5504
▁quote	-11.5506
▁harder	-11.551
▁plantation	-11.551
▁ricard	-11.5511
▁solve	-11.5511
▁ellis	-11.5519
▁eagles	-11.5519
▁speeds	-11.5527
▁numbering	-11.5527
▁continuously	-11.5529
second	-11.553
▁tactic	-11.5533
▁cdu	-11.5534
tti	-11.5538
▁restore	-11.5539
sten	-11.5539
code	-11.5542
ough	-11.5543
▁puck	-11.5544
▁sau	-11.5546
rou	-11.555
oux	-11.555
lov	-11.5552
▁apprentice	-11.5556
▁avalanche	-11.5556
▁catarina	-11.5556
▁combustion	-11.5556
▁propriet	-11.5556
▁plasma	-11.5556
▁clarence	-11.5556
▁recurring	-11.5556
▁toledo	-11.5557
▁zack	-11.556
▁phosphorus	-11.556
▁vic	-11.5561
▁bradley	-11.5561
▁comb	-11.5563
▁prediction	-11.5564
addam	-11.5567
▁knows	-11.5569
▁1784	-11.557
▁engraving	-11.5571
▁pork	-11.5572
▁mitch	-11.5576
▁everton	-11.5578
▁josef	-11.558
▁suppli	-11.5581
hab	-11.5581
ging	-11.5582
▁bacterial	-11.559
▁06	-11.559
▁supervis	-11.5591
▁acc	-11.5597
▁sovereignt	-11.56
▁1794	-11.5602
▁karna	-11.5604
▁seasonal	-11.5605
keeper	-11.5607
▁moh	-11.5611
vy	-11.5611
ack	-11.5616
▁drag	-11.562
▁geographically	-11.562
▁veda	-11.5623
power	-11.5625
▁cham	-11.5625
▁landed	-11.5625
▁diploma	-11.5625
▁depos	-11.5625
▁survivors	-11.563
▁invertebrate	-11.5632
▁occitan	-11.5632
▁semifinal	-11.5632
▁suspension	-11.5632
▁crescent	-11.5632
▁coconut	-11.5632
▁vengeance	-11.5633
▁diabet	-11.5633
▁decreas	-11.5633
stage	-11.5633
▁narrator	-11.5633
▁evergreen	-11.5633
▁fluoride	-11.5638
▁dodd	-11.564
▁underneath	-11.5641
▁banana	-11.5641
kor	-11.5643
▁1700	-11.5643
▁gon	-11.5644
▁cla	-11.5645
▁daylight	-11.5645
▁1811	-11.5646
▁clash	-11.5648
▁webster	-11.5648
▁symbolic	-11.565
iness	-11.565
▁garage	-11.5653
▁eastward	-11.5655
▁hoped	-11.5657
drew	-11.5659
▁mainten	-11.5661
▁mae	-11.5661
▁chiba	-11.5664
▁costs	-11.5667
▁developer	-11.5669
▁comments	-11.5669
winning	-11.5669
hir	-11.5672
▁tit	-11.5675
▁universit	-11.5678
▁147	-11.5681
▁grub	-11.5682
nian	-11.5684
▁greeks	-11.5688
▁fro	-11.5692
▁hunters	-11.5694
▁6000	-11.5698
▁fires	-11.57
▁curie	-11.5705
▁needle	-11.5709
wrttemberg	-11.5709
▁cinderella	-11.5709
▁furniture	-11.5709
▁precursor	-11.5709
▁zanzibar	-11.5709
▁alexandre	-11.5709
▁thief	-11.5709
▁geometric	-11.5709
▁aftermath	-11.571
▁mecca	-11.571
▁lanarkshire	-11.571
▁fraser	-11.571
▁citizenship	-11.571
▁activat	-11.571
▁priva	-11.571
cephal	-11.5711
▁illustration	-11.5711
▁genome	-11.5711
▁negotiation	-11.5712
▁palestinian	-11.5712
▁ireann	-11.5713
▁completion	-11.5713
▁111	-11.5715
▁investigat	-11.5716
▁speedway	-11.5716
▁puzzle	-11.5717
▁turtle	-11.5717
▁alloy	-11.5718
▁rape	-11.5721
▁sacramento	-11.5721
hoe	-11.5723
▁caca	-11.5723
▁cn	-11.5724
▁750	-11.5724
▁refuse	-11.5726
▁rational	-11.5729
▁arise	-11.573
path	-11.5732
▁artwork	-11.5733
▁variants	-11.5735
▁cooling	-11.5735
▁pears	-11.574
▁ot	-11.5742
▁abdul	-11.5743
▁barnes	-11.5746
▁jud	-11.5746
rot	-11.575
▁taois	-11.575
▁populariz	-11.575
spiration	-11.5751
eva	-11.5754
▁salts	-11.5755
▁rac	-11.5757
locked	-11.5761
defin	-11.5761
nde	-11.5763
lois	-11.5763
hitting	-11.5765
▁vai	-11.577
rod	-11.5772
▁consumed	-11.5772
▁pear	-11.5774
▁superhero	-11.5774
▁mod	-11.5777
rant	-11.5779
▁optic	-11.578
rem	-11.5781
▁keyboards	-11.5781
▁cyclo	-11.5784
▁luna	-11.5784
▁exploit	-11.5785
rill	-11.5786
▁cherokee	-11.5787
▁mcdonald	-11.5787
▁nobility	-11.5787
▁scandal	-11.5787
▁milkweed	-11.5787
▁sardinia	-11.5787
▁skipper	-11.5787
▁multimedia	-11.5787
▁watt	-11.5787
▁emmanuel	-11.5788
▁developmental	-11.5788
▁pretori	-11.5788
anu	-11.5789
▁elimination	-11.5789
arch	-11.579
▁unity	-11.579
rna	-11.5792
▁outlaw	-11.5794
▁preston	-11.5794
▁gpl	-11.5794
ivity	-11.5795
▁nme	-11.5796
▁scandinavian	-11.5797
▁bennett	-11.5798
▁sagan	-11.58
700	-11.5803
▁truman	-11.581
▁mint	-11.5811
▁museums	-11.5814
▁stain	-11.5815
▁performer	-11.582
▁aden	-11.582
▁paste	-11.5821
zhou	-11.5823
▁lungs	-11.5823
▁rath	-11.5823
wel	-11.5841
wy	-11.5841
fire	-11.5842
1990	-11.5842
▁donna	-11.5842
▁flags	-11.5844
▁johnston	-11.5849
▁galli	-11.5852
isse	-11.5857
cross	-11.586
▁lago	-11.586
▁filming	-11.5864
▁accompany	-11.5865
▁breakfast	-11.5865
▁cadmium	-11.5865
▁nitrate	-11.5865
▁tchaikovsky	-11.5865
▁triumph	-11.5865
▁beverage	-11.5865
▁routine	-11.5865
▁locarn	-11.5865
amo	-11.5865
▁vlad	-11.5865
▁cassini	-11.5866
bara	-11.5867
▁pigment	-11.5867
▁prose	-11.5867
▁octopus	-11.5867
▁cohen	-11.5869
milton	-11.5869
▁slight	-11.5871
▁surgeon	-11.5871
▁oz	-11.5871
▁pounds	-11.5874
▁diva	-11.5875
▁1827	-11.5876
▁hare	-11.5876
▁commuter	-11.5877
▁expell	-11.5878
▁webb	-11.5878
▁ellen	-11.5878
▁trend	-11.5882
grid	-11.5884
▁menu	-11.5886
▁specialis	-11.5896
▁helena	-11.5898
▁deem	-11.5899
▁martyr	-11.5902
▁pact	-11.5904
▁yasu	-11.5909
▁marion	-11.5911
▁cuban	-11.5913
ference	-11.5916
itor	-11.5916
▁mood	-11.5917
▁craft	-11.5917
▁shrubs	-11.5923
▁newer	-11.5924
▁clement	-11.5927
▁quad	-11.5928
▁mistake	-11.5929
▁foundations	-11.5931
▁114	-11.5933
▁crane	-11.5935
▁billiards	-11.5936
iest	-11.5936
dec	-11.5938
▁jubilee	-11.5944
▁meowth	-11.5944
▁counsel	-11.5944
▁relegat	-11.5944
▁flourish	-11.5945
▁navigation	-11.5945
▁flair	-11.5945
▁carroll	-11.5946
cott	-11.5946
▁furby	-11.5947
▁spike	-11.5947
▁julie	-11.5948
▁bahama	-11.595
▁decimal	-11.5952
alai	-11.5953
▁finest	-11.5953
▁manuscript	-11.5958
▁barber	-11.5962
3000	-11.5963
▁sunsh	-11.5964
▁vida	-11.5965
▁kes	-11.5967
mati	-11.5978
mba	-11.5978
camp	-11.598
▁northampton	-11.598
▁commemorate	-11.5981
▁refuge	-11.5983
▁focuse	-11.5983
▁dart	-11.5984
olin	-11.5985
▁optional	-11.5986
▁lineage	-11.5986
▁1.6	-11.5991
▁kir	-11.5993
1986	-11.6002
ograph	-11.6006
▁crist	-11.6011
▁schr	-11.6012
euil	-11.6013
▁butcher	-11.6015
▁loyal	-11.6015
heart	-11.6016
▁pav	-11.6018
him	-11.602
▁synonym	-11.6021
▁nottingham	-11.6022
▁punish	-11.6023
▁openoffice	-11.6023
▁airbender	-11.6023
▁cephalopod	-11.6023
▁deceased	-11.6023
▁emission	-11.6023
▁eternal	-11.6023
▁kyneton	-11.6023
▁sophia	-11.6023
▁auschwitz	-11.6023
▁ecclesiastic	-11.6023
▁vauxhall	-11.6023
▁gerhard	-11.6023
▁anonymous	-11.6024
▁casino	-11.6024
▁disturbance	-11.6024
▁polymer	-11.6024
▁bambi	-11.6025
▁cosworth	-11.6025
▁mutant	-11.6025
hay	-11.6027
▁candle	-11.6028
▁glacial	-11.6029
▁wig	-11.6031
rgb	-11.6032
▁harsh	-11.6033
▁announce	-11.6033
▁static	-11.6037
sheim	-11.6037
train	-11.6038
unt	-11.6039
▁conn	-11.604
uma	-11.6041
▁mediumsize	-11.6049
▁thy	-11.6054
bone	-11.6057
▁fingers	-11.606
central	-11.6068
▁bride	-11.6068
▁240	-11.6072
yoshi	-11.6079
aire	-11.6086
orm	-11.6089
▁gha	-11.6095
▁tong	-11.6097
works	-11.6097
▁accommodation	-11.6103
▁aggressive	-11.6103
▁deliberate	-11.6103
▁eleanor	-11.6103
▁lavigne	-11.6103
▁madrigal	-11.6103
▁baader	-11.6103
▁alonso	-11.6103
▁spending	-11.6103
▁entities	-11.6103
▁epoch	-11.6104
▁longrunning	-11.6104
▁reopen	-11.6104
▁citing	-11.6105
▁bolivia	-11.6105
▁microscope	-11.6106
▁hannah	-11.6106
cm	-11.6107
▁dalmatian	-11.6108
oxide	-11.6109
▁calculation	-11.6109
▁avery	-11.611
▁liv	-11.611
▁serf	-11.6114
▁dio	-11.6114
▁contender	-11.6115
▁1828	-11.6116
▁edits	-11.6117
▁andrews	-11.6118
▁vegetable	-11.6121
▁450	-11.6124
▁cubic	-11.6124
ashi	-11.6125
▁strikes	-11.6125
▁brooks	-11.6129
▁lets	-11.6129
▁const	-11.6139
▁socrat	-11.614
▁stamps	-11.6146
nica	-11.6151
▁diving	-11.6152
nam	-11.6153
emi	-11.6154
▁rows	-11.6154
▁posthumous	-11.6155
▁vern	-11.6157
▁4.5	-11.6161
▁broadly	-11.6161
▁sever	-11.6163
▁syrian	-11.6164
gio	-11.6164
▁220	-11.6165
▁prepar	-11.6166
▁philippe	-11.6167
▁leh	-11.6168
iana	-11.6169
▁sas	-11.617
ilo	-11.617
flower	-11.6171
▁bengali	-11.6175
garten	-11.6176
▁dana	-11.6176
▁krist	-11.6176
▁bubbles	-11.6179
▁servers	-11.618
▁15000	-11.6181
▁microscop	-11.6181
▁aesthetic	-11.6184
▁eponymous	-11.6184
▁gibson	-11.6184
▁militant	-11.6184
▁anatolia	-11.6184
▁botany	-11.6184
▁chitral	-11.6184
lik	-11.6184
▁haydn	-11.6184
▁ipcc	-11.6184
▁focal	-11.6184
▁vietnamese	-11.6186
▁holmes	-11.6186
▁attribute	-11.6186
▁mom	-11.6188
▁preservation	-11.6188
▁employment	-11.6189
german	-11.6191
▁tilt	-11.6194
hito	-11.6197
▁suck	-11.6203
▁dim	-11.6203
▁hunger	-11.6204
▁pathogen	-11.6206
▁dolls	-11.6207
▁pru	-11.621
▁seas	-11.621
▁politically	-11.6211
▁jury	-11.6213
▁electromagneti	-11.6214
▁revert	-11.6214
cid	-11.6215
▁thal	-11.6216
▁cassi	-11.622
▁disks	-11.622
▁geoffre	-11.6221
▁badge	-11.6222
▁rodents	-11.6222
▁turbo	-11.6224
▁brook	-11.6228
▁northward	-11.623
lion	-11.6233
▁shorts	-11.6233
roy	-11.6237
nau	-11.6238
erland	-11.6258
track	-11.626
▁voluntar	-11.6262
▁prosper	-11.6264
▁circulat	-11.6264
▁austriahungary	-11.6265
▁nicaragua	-11.6265
▁nonfiction	-11.6265
▁voivodeship	-11.6265
▁cobalt	-11.6265
▁pseudonym	-11.6265
▁reddish	-11.6265
▁bundestag	-11.6265
▁sf	-11.6265
▁stirling	-11.6265
▁ethanol	-11.6266
▁pun	-11.6267
▁shinto	-11.6269
▁proms	-11.6269
▁monica	-11.627
▁joel	-11.6271
ornis	-11.6271
▁galileo	-11.6273
▁tributaries	-11.6274
nna	-11.6275
▁spines	-11.6276
▁tears	-11.6277
▁luca	-11.6278
▁wrapp	-11.6279
nut	-11.628
▁psycho	-11.6281
▁marge	-11.6287
▁cluster	-11.6288
uda	-11.629
▁prop	-11.6291
eater	-11.6291
▁rust	-11.6295
▁preacher	-11.6298
▁tigers	-11.6299
▁amor	-11.6302
▁gaming	-11.6303
▁lyn	-11.6305
mates	-11.6309
▁proxim	-11.6314
▁domini	-11.6316
▁sab	-11.6316
ios	-11.6316
logical	-11.6317
▁incorporate	-11.6318
▁tung	-11.6326
▁hack	-11.6326
▁addresses	-11.6326
▁coco	-11.6328
mura	-11.6329
lop	-11.6331
haus	-11.6333
▁legion	-11.6333
▁bod	-11.6334
▁georges	-11.6336
▁toro	-11.6336
lv	-11.6337
▁mina	-11.6338
▁orion	-11.6342
▁algorithms	-11.6343
▁hou	-11.6345
▁relate	-11.6345
shot	-11.6346
▁heidelberg	-11.6347
▁antagonist	-11.6347
▁lesbian	-11.6347
▁nirvana	-11.6347
▁saxecoburg	-11.6347
▁soprano	-11.6347
▁lobster	-11.6347
▁fellowship	-11.6349
anta	-11.635
self	-11.6351
▁plaintext	-11.6353
▁sylvi	-11.6354
▁dorothy	-11.6358
▁destinations	-11.6359
▁carpenter	-11.6359
▁specially	-11.6361
▁parallelism	-11.6362
▁joke	-11.6363
▁norri	-11.6363
▁borg	-11.6366
▁insane	-11.6367
▁sup	-11.6367
▁marx	-11.6367
▁duct	-11.637
▁victim	-11.6371
▁ingredient	-11.6371
got	-11.6373
▁nordic	-11.6374
▁rated	-11.6374
▁quin	-11.6376
▁rovers	-11.638
atsu	-11.6382
▁chronicle	-11.6382
▁vor	-11.6384
▁denot	-11.6386
▁itv	-11.6387
▁blast	-11.6387
yer	-11.6391
▁vest	-11.6394
nha	-11.6395
▁106	-11.6397
secretarygeneral	-11.6399
meter	-11.6399
▁coordinat	-11.6401
▁wern	-11.6407
▁halt	-11.6409
▁calder	-11.641
▁poli	-11.6411
▁brew	-11.6412
tron	-11.6416
▁aunt	-11.6416
now	-11.6417
▁typ	-11.6418
▁employer	-11.6419
▁algebra	-11.6425
▁0.5	-11.6426
▁xx	-11.6427
oidea	-11.6427
▁gla	-11.6429
▁conversation	-11.643
▁lantern	-11.643
▁blo	-11.643
▁compass	-11.643
▁multisport	-11.643
▁selenium	-11.643
▁sings	-11.643
▁salamander	-11.643
▁beaver	-11.643
▁chteau	-11.643
▁wavelength	-11.6431
▁kel	-11.6431
▁mansion	-11.6432
▁detective	-11.6433
▁verses	-11.6435
▁klaus	-11.6435
▁heinz	-11.6438
▁englishspeak	-11.6439
▁dug	-11.6442
▁feudal	-11.6443
▁sixty	-11.6444
▁lob	-11.6445
▁expir	-11.6452
▁dos	-11.6453
▁ranch	-11.6454
kai	-11.6455
▁listen	-11.6456
hon	-11.6456
▁phases	-11.6463
▁fights	-11.6465
▁nk	-11.6468
ibility	-11.647
▁shirt	-11.6478
tun	-11.6479
▁fonts	-11.6495
night	-11.6496
▁cycles	-11.6498
otti	-11.6501
rain	-11.6501
▁eighteen	-11.6502
plan	-11.6504
▁rage	-11.6504
▁annie	-11.6505
▁graphical	-11.6505
▁dir	-11.6508
▁confiden	-11.6512
▁jeremy	-11.6513
▁luxury	-11.6513
▁prolific	-11.6513
▁psychologist	-11.6513
▁reggae	-11.6513
▁striking	-11.6513
▁tolkien	-11.6513
▁vaccine	-11.6513
▁vulcan	-11.6513
▁myanmar	-11.6513
▁mistress	-11.6513
▁regain	-11.6513
▁herschel	-11.6513
▁blessed	-11.6514
▁groove	-11.6514
▁granada	-11.6514
▁stephan	-11.6515
▁scripture	-11.6515
▁fulfill	-11.6517
▁councillor	-11.6517
▁rivalry	-11.6517
ison	-11.6519
▁cecil	-11.652
election	-11.6521
gl	-11.6523
▁1730	-11.6524
▁castro	-11.6527
yin	-11.6528
▁frac	-11.6532
▁vein	-11.6532
▁norm	-11.6533
▁tent	-11.6534
▁legends	-11.6536
gues	-11.6537
▁bombings	-11.6538
▁animator	-11.6541
▁boarding	-11.6545
uan	-11.6545
▁sai	-11.6547
anger	-11.6551
zar	-11.6551
▁lund	-11.6553
▁audi	-11.6555
▁scores	-11.6557
▁copi	-11.6559
leigh	-11.6559
▁rodrigue	-11.6561
▁heal	-11.6562
pil	-11.6564
▁sino	-11.6572
mbo	-11.6574
▁gin	-11.6575
▁smile	-11.6576
.00	-11.658
▁shu	-11.658
▁valle	-11.6585
▁alfa	-11.659
▁bury	-11.6594
▁sack	-11.6595
▁exam	-11.6596
▁divisor	-11.6597
▁eucalypt	-11.6597
▁submission	-11.6597
▁lisbon	-11.6597
▁asylum	-11.6597
▁enlightenment	-11.6597
▁kornberg	-11.6598
boat	-11.6598
▁ulster	-11.6598
▁amendment	-11.6598
▁coldplay	-11.6598
▁malaria	-11.6598
▁reunit	-11.6599
▁locus	-11.6599
▁angola	-11.6601
formally	-11.6602
▁philipp	-11.6603
▁abbott	-11.6604
▁thr	-11.6605
▁regi	-11.6607
▁criteria	-11.6609
ement	-11.6609
▁celebrations	-11.661
▁morrison	-11.6612
▁burst	-11.6621
▁defect	-11.6622
▁allan	-11.6626
▁searching	-11.6627
each	-11.663
talk	-11.6631
▁armenians	-11.6632
dou	-11.6635
▁mole	-11.6642
▁quarters	-11.6642
▁pace	-11.6646
▁fern	-11.6647
▁curtis	-11.665
▁1707	-11.6654
itric	-11.6658
▁authoriz	-11.6662
▁teau	-11.6662
fill	-11.6663
▁palo	-11.6666
lich	-11.6672
try	-11.6679
▁jinnah	-11.6682
▁leopard	-11.6682
▁meridian	-11.6682
▁baluka	-11.6682
▁majesty	-11.6682
▁terminology	-11.6682
▁encyclopdia	-11.6682
▁plaza	-11.6683
▁relevan	-11.6683
▁cantor	-11.6683
▁guarantee	-11.6683
▁comparative	-11.6683
▁initiative	-11.6683
▁privilege	-11.6684
▁eton	-11.6684
▁mercy	-11.6685
inch	-11.6689
▁refin	-11.6689
iol	-11.6689
▁xiii	-11.6691
▁churchill	-11.6693
▁nov	-11.6695
▁depiction	-11.6696
▁navarre	-11.6698
saurus	-11.6702
▁moe	-11.6703
▁ner	-11.6704
dell	-11.6704
▁noise	-11.6709
▁aboard	-11.6712
▁prett	-11.6713
nson	-11.6715
▁morse	-11.6718
▁virtue	-11.6719
hiko	-11.6721
▁cont	-11.6721
▁ely	-11.6722
▁folds	-11.6726
▁teaches	-11.6728
▁hash	-11.673
▁floating	-11.6733
▁receiver	-11.6734
▁seth	-11.6743
▁cox	-11.6744
▁kun	-11.6744
▁collaps	-11.6746
▁colours	-11.6749
▁reinforc	-11.6751
sharp	-11.6755
▁recreation	-11.6759
▁vald	-11.6766
▁punjabi	-11.6767
▁gian	-11.6767
▁marseille	-11.6767
▁bourbon	-11.6767
▁sainte	-11.6767
▁mcclane	-11.6767
▁wolves	-11.6767
▁helium	-11.6768
▁gandhi	-11.6768
▁pietro	-11.6768
▁trauma	-11.6768
▁circum	-11.6769
▁lambert	-11.6769
▁vibration	-11.6769
▁premiership	-11.6773
▁tough	-11.6773
▁darmstadt	-11.6774
▁cdot	-11.6775
▁wimb	-11.6775
▁integral	-11.6776
▁recreational	-11.6777
▁cad	-11.6779
▁darkness	-11.6782
▁nud	-11.6787
▁dependenc	-11.6788
▁guang	-11.6788
ete	-11.6791
▁jorge	-11.6793
▁gall	-11.6794
▁1802	-11.6795
▁steppe	-11.6796
▁alb	-11.68
▁bir	-11.6802
▁oli	-11.6806
▁citystate	-11.6809
▁vit	-11.681
▁babi	-11.6811
▁isabel	-11.6813
▁macrop	-11.6816
thology	-11.6816
▁cooler	-11.6818
lecommunications	-11.682
▁ext	-11.6823
▁beds	-11.6824
enham	-11.6825
aid	-11.6826
▁stade	-11.6828
purpose	-11.6828
yang	-11.6828
▁shine	-11.6829
ele	-11.6829
▁peri	-11.6832
▁vandal	-11.6834
position	-11.6835
▁rider	-11.6837
▁juno	-11.6837
cchi	-11.6839
▁fbi	-11.6847
▁dodge	-11.6847
sign	-11.6852
▁symmetric	-11.6852
▁shogun	-11.6853
▁boulevard	-11.6853
▁gibraltar	-11.6853
▁milwaukee	-11.6853
▁nowadays	-11.6853
▁peloponnes	-11.6853
▁rupert	-11.6853
▁solstice	-11.6853
▁tuberculosis	-11.6853
▁aluminium	-11.6853
▁civic	-11.6853
▁vocabulary	-11.6853
▁consoles	-11.6854
▁elongate	-11.6854
▁franois	-11.6854
▁burgess	-11.6854
▁angelico	-11.6854
▁hereditar	-11.6855
▁torture	-11.6855
▁elisabeth	-11.6855
▁acceleration	-11.6856
▁identification	-11.6856
▁xray	-11.6856
▁methane	-11.6857
▁everett	-11.6858
▁cooperat	-11.686
▁cope	-11.6864
▁lope	-11.6865
▁rouge	-11.6865
▁peanut	-11.6866
▁tomatoes	-11.6868
▁kas	-11.6871
▁methodist	-11.6871
▁afl	-11.6874
▁devis	-11.6874
nick	-11.6874
▁woodland	-11.6877
▁segund	-11.6877
▁reflection	-11.6877
▁tested	-11.6878
ature	-11.6879
▁execute	-11.688
▁freed	-11.6881
▁reactor	-11.6882
▁airing	-11.6882
▁equality	-11.6883
▁honduras	-11.6884
▁rivals	-11.6884
▁bushranger	-11.689
owski	-11.6891
▁patriot	-11.6892
▁cath	-11.6894
▁doc	-11.6895
▁contestant	-11.6896
▁horns	-11.69
uckland	-11.6907
▁priests	-11.6916
▁neuro	-11.6917
▁cum	-11.6917
▁wit	-11.6919
▁cathar	-11.6919
▁jake	-11.6926
▁spirits	-11.6927
rade	-11.6927
▁weir	-11.6928
▁observ	-11.693
▁duff	-11.6932
▁relat	-11.6933
gam	-11.6934
▁plato	-11.6935
▁severely	-11.6939
▁pilgrim	-11.6939
▁8000	-11.694
formed	-11.694
▁lubbock	-11.694
▁perpendicular	-11.694
▁harlem	-11.694
▁suffix	-11.694
▁hershey	-11.694
▁belinda	-11.694
▁sensation	-11.694
▁absent	-11.694
▁murphy	-11.694
▁owl	-11.694
▁sturt	-11.694
▁ajax	-11.6941
▁tudor	-11.6941
▁interference	-11.6941
▁winchester	-11.6942
▁chau	-11.6945
▁leftwing	-11.6945
▁lorraine	-11.6947
▁1782	-11.6947
▁tidal	-11.6947
▁1777	-11.6952
clus	-11.6955
▁1807	-11.6955
▁butler	-11.6957
▁crop	-11.6962
▁krak	-11.6963
▁duration	-11.6964
▁kai	-11.6965
▁sergi	-11.6968
▁wick	-11.6969
ike	-11.6971
▁socks	-11.6971
▁sseldorf	-11.6973
hofen	-11.6974
▁ost	-11.6978
▁hanged	-11.6978
tana	-11.6981
▁controlling	-11.6981
▁creature	-11.6982
▁constantly	-11.6983
ozoic	-11.6988
▁kav	-11.6989
▁sep	-11.699
▁grim	-11.6993
▁freely	-11.6994
▁hms	-11.6995
▁bella	-11.7
group	-11.7001
▁corsica	-11.7013
▁nude	-11.7013
▁della	-11.7014
uca	-11.7025
▁cultivar	-11.7028
▁jesuit	-11.7028
▁labrador	-11.7028
▁saffir	-11.7028
▁endemic	-11.7028
▁paterson	-11.7028
▁treason	-11.7028
▁pigeon	-11.7028
▁hm	-11.7028
▁velvet	-11.7028
▁tate	-11.7029
▁genius	-11.703
vor	-11.703
▁faust	-11.703
▁peripheral	-11.7032
▁thyroid	-11.7033
▁thalli	-11.7034
▁diode	-11.7036
print	-11.7037
▁gdel	-11.7038
▁theft	-11.7042
▁dominic	-11.705
▁hindi	-11.7053
▁observe	-11.7054
▁seller	-11.7055
▁104	-11.7056
▁clar	-11.7057
isto	-11.706
9000	-11.706
▁cellular	-11.7064
zawa	-11.7064
▁carriage	-11.7069
▁calib	-11.7073
▁publish	-11.7074
eti	-11.7076
▁fredd	-11.7078
▁zan	-11.7082
▁erin	-11.7082
▁fm	-11.7083
aud	-11.7085
▁rebuild	-11.7088
▁implie	-11.7089
▁distributions	-11.7093
nstop	-11.7095
▁publishe	-11.7096
▁tat	-11.7096
▁roth	-11.71
gut	-11.7102
▁bind	-11.7105
▁harmonic	-11.7105
▁ari	-11.7109
▁2500	-11.7115
▁prim	-11.7116
▁mirama	-11.7116
▁trinidad	-11.7116
▁hedgehog	-11.7117
▁demolish	-11.7117
▁paraguay	-11.7117
▁prairie	-11.7117
▁ceiling	-11.7117
▁harmony	-11.7117
▁shanghai	-11.7117
▁nominal	-11.7117
▁tumor	-11.7118
▁syrup	-11.7118
▁valence	-11.7118
match	-11.7118
chu	-11.7119
▁igor	-11.7119
▁engagement	-11.712
eche	-11.712
▁clarkson	-11.7121
▁terrain	-11.7122
▁tiff	-11.7126
▁wai	-11.7126
▁cind	-11.713
▁cure	-11.7131
▁alvin	-11.7134
▁glam	-11.7135
▁generator	-11.7137
▁spinal	-11.7139
▁poe	-11.7142
lip	-11.7144
▁aids	-11.7144
cola	-11.7144
▁gala	-11.7145
▁circuits	-11.7148
▁dys	-11.7152
▁advent	-11.7153
▁haven	-11.7153
issa	-11.7155
▁jointly	-11.7157
▁rainforest	-11.716
▁facts	-11.7162
▁abandon	-11.7166
▁clade	-11.7167
▁fold	-11.7173
▁shang	-11.7173
▁sometime	-11.7175
▁concord	-11.7177
▁euclid	-11.718
▁traveller	-11.7181
▁barrel	-11.7181
1988	-11.7183
▁teammate	-11.7185
▁nigerian	-11.7186
▁yamato	-11.7191
urus	-11.7192
combe	-11.7192
▁05	-11.7195
hari	-11.7199
▁surfaces	-11.7201
▁bonaparte	-11.7206
▁fountain	-11.7206
▁hendrix	-11.7206
▁metaphor	-11.7206
▁python	-11.7206
▁gunnedah	-11.7206
▁celsius	-11.7206
▁silicon	-11.7206
▁aurora	-11.7206
▁ananke	-11.7206
▁cartridge	-11.7206
▁oracle	-11.7206
▁reperto	-11.7206
▁rochester	-11.7207
slam	-11.7207
vna	-11.7209
▁ideolog	-11.7209
▁circus	-11.721
▁sunset	-11.7211
iah	-11.7216
aries	-11.7219
▁therapy	-11.722
▁kati	-11.7221
▁eighteenth	-11.7221
▁hex	-11.7222
▁aero	-11.7222
ando	-11.7223
▁racer	-11.7224
▁hamm	-11.7225
▁clinical	-11.7228
▁convey	-11.723
▁guests	-11.7231
▁alltime	-11.7232
▁mow	-11.7232
▁shades	-11.7235
▁edith	-11.7235
eke	-11.7237
▁aw	-11.7243
▁conventions	-11.7244
▁folded	-11.7248
▁coordinates	-11.7252
▁bernhard	-11.7252
▁quotation	-11.7255
▁horton	-11.7259
rix	-11.726
▁ayr	-11.7262
▁intend	-11.7264
▁hiv	-11.7264
▁118	-11.7264
▁fake	-11.7265
▁comment	-11.7267
▁mira	-11.727
▁buff	-11.727
▁campo	-11.7271
▁bacteri	-11.7271
educational	-11.7272
▁fig	-11.7273
xeter	-11.7276
▁jewel	-11.7277
▁himalaya	-11.7278
▁rik	-11.7279
▁shy	-11.7283
▁raced	-11.7283
▁hanse	-11.7284
lou	-11.7284
▁sox	-11.7285
▁moist	-11.7286
▁clergy	-11.7292
▁ful	-11.7295
▁worcester	-11.7295
▁abdomen	-11.7296
▁atltico	-11.7296
▁discrete	-11.7296
▁ecumenical	-11.7296
▁mandaean	-11.7296
▁shrimp	-11.7296
▁tentacles	-11.7296
▁tokugawa	-11.7296
▁oxidiz	-11.7296
▁hesiod	-11.7296
▁nfc	-11.7296
▁ciphertext	-11.7296
▁architects	-11.7296
▁yeast	-11.7297
▁fletch	-11.7297
▁inspector	-11.7297
▁hastings	-11.7298
ister	-11.73
▁116	-11.7301
▁symphonie	-11.7301
▁genital	-11.7303
▁yunus	-11.7303
▁garment	-11.7303
▁gerard	-11.7304
▁robb	-11.7305
▁worse	-11.7306
▁resum	-11.7308
ui	-11.7308
▁verdi	-11.7309
pping	-11.7311
▁braun	-11.7314
▁sabre	-11.7316
▁doctorate	-11.7316
gai	-11.7316
▁bohemian	-11.7318
▁outlet	-11.7318
▁shrub	-11.7319
▁xmen	-11.7321
▁pulp	-11.7321
sdorf	-11.7324
▁gul	-11.7328
▁harding	-11.7328
late	-11.7328
qa	-11.7328
▁princes	-11.7328
▁pia	-11.7331
▁kc	-11.7331
▁lump	-11.7334
location	-11.7335
boy	-11.7338
▁acknowledge	-11.7338
▁palla	-11.7341
▁sour	-11.7342
▁gore	-11.7344
fest	-11.7346
▁brent	-11.7351
▁fife	-11.7351
▁jurist	-11.7355
▁lud	-11.7357
▁kru	-11.736
white	-11.7361
brown	-11.7361
▁requir	-11.7362
▁jur	-11.7363
▁encompasse	-11.7364
▁kitt	-11.7365
ehr	-11.7366
grade	-11.7368
▁schwe	-11.7369
olde	-11.7372
▁nineteen	-11.7376
apolis	-11.7377
▁refugees	-11.7377
▁recognis	-11.7387
▁behaviour	-11.7387
▁botanist	-11.7387
▁cambodia	-11.7387
▁forbidden	-11.7387
▁mercedes	-11.7387
▁pulmonary	-11.7387
▁dispatch	-11.7387
▁goethe	-11.7387
▁garrison	-11.7387
▁suppress	-11.7387
▁danzig	-11.7387
▁buckinghamshire	-11.7387
▁mansfield	-11.7387
▁apples	-11.7388
▁hilton	-11.7388
▁mutation	-11.7389
▁emerge	-11.7392
kr	-11.7392
▁40000	-11.7393
yre	-11.7395
▁yoko	-11.7395
hold	-11.7395
▁sweat	-11.7396
▁lon	-11.7397
▁dominion	-11.7399
▁nen	-11.74
▁sem	-11.7403
▁primate	-11.7404
▁worshipp	-11.7406
▁siblings	-11.7407
▁lor	-11.7408
▁gru	-11.7408
▁rai	-11.741
▁122	-11.7411
▁slat	-11.7411
▁drown	-11.7414
▁duma	-11.7414
▁tornadoes	-11.7414
▁richardson	-11.7416
▁plat	-11.7417
▁cylinder	-11.7417
▁yass	-11.7417
base	-11.7418
▁basel	-11.7422
▁dee	-11.7425
▁dropping	-11.7425
▁eros	-11.7426
real	-11.7427
how	-11.7427
yx	-11.743
guer	-11.743
▁hortons	-11.7431
▁dances	-11.7431
▁xv	-11.7435
▁cowboy	-11.7439
▁trader	-11.744
guez	-11.7441
▁aims	-11.7442
▁uc	-11.7442
▁ruby	-11.7443
▁confuse	-11.7443
▁cue	-11.7453
▁kant	-11.7455
▁evi	-11.7456
▁cafe	-11.7457
▁wee	-11.7458
▁ramon	-11.7468
▁320	-11.7471
▁disput	-11.7472
▁sten	-11.7472
▁laser	-11.7472
▁eurasia	-11.7474
▁taxi	-11.7475
▁pos	-11.7478
▁alternating	-11.7479
▁burkina	-11.7479
▁feminist	-11.7479
▁griffin	-11.7479
▁psychiatrist	-11.7479
▁sinclair	-11.7479
▁spurgeon	-11.7479
▁unexpected	-11.7479
▁venetian	-11.7479
▁mandarin	-11.7479
▁deletion	-11.7479
▁roast	-11.7479
▁joystick	-11.7479
▁friction	-11.7479
▁disagreement	-11.7479
▁readi	-11.748
▁fermentation	-11.748
▁musket	-11.748
▁sesam	-11.748
▁sgt	-11.7481
▁rotten	-11.7481
▁subset	-11.7482
▁bamberg	-11.7482
▁licenses	-11.7482
▁antimon	-11.7482
▁corpus	-11.7482
▁evacuation	-11.7484
▁eukaryot	-11.7486
▁mendel	-11.7487
▁bayern	-11.7487
▁1778	-11.7489
▁draws	-11.7492
▁admir	-11.7493
▁domin	-11.7494
▁grover	-11.7495
▁christina	-11.7496
▁mistaken	-11.7496
▁jovi	-11.7497
▁graduation	-11.7499
▁recon	-11.7501
graph	-11.7505
1991	-11.7506
▁wilt	-11.7508
wind	-11.7511
▁blanc	-11.7517
▁saman	-11.7522
media	-11.7523
room	-11.7526
▁sher	-11.7527
▁fauna	-11.7528
▁maj	-11.7531
▁digit	-11.7532
ikon	-11.7533
▁intern	-11.7534
▁iz	-11.7537
▁smoot	-11.7537
▁hotsp	-11.7537
dhaka	-11.754
▁disputes	-11.7542
japanese	-11.7546
▁oceania	-11.755
▁seb	-11.755
▁artur	-11.7551
▁logan	-11.7552
▁emu	-11.7553
linger	-11.756
sses	-11.7561
▁persuad	-11.7562
▁permit	-11.7563
▁caterpillar	-11.7571
▁gilgit	-11.7571
▁pygm	-11.7571
▁syllable	-11.7571
▁illusion	-11.7571
ylus	-11.7571
▁mythological	-11.7571
▁emblem	-11.7571
▁flank	-11.7572
▁lenzburg	-11.7572
▁atoll	-11.7572
lix	-11.7572
▁uttar	-11.7572
▁massa	-11.7572
▁lynch	-11.7573
▁stockport	-11.7574
▁beeton	-11.7574
▁fraud	-11.7574
▁hispani	-11.7576
▁bulletin	-11.7576
▁flagship	-11.7576
schenbach	-11.758
▁breakup	-11.758
▁1536	-11.7587
▁warwick	-11.7587
▁wax	-11.7589
▁yi	-11.7593
atus	-11.7595
▁jung	-11.7595
gnes	-11.7597
▁sergei	-11.7598
▁horst	-11.76
▁displaced	-11.7601
ographic	-11.7602
▁cyto	-11.7602
ition	-11.7603
▁bias	-11.7607
▁backup	-11.7608
▁threads	-11.7608
▁cb	-11.7609
▁tna	-11.761
▁secured	-11.7612
▁farms	-11.7612
▁nave	-11.7613
▁catholicism	-11.7616
gla	-11.762
▁betty	-11.7621
▁sak	-11.7623
▁eps	-11.7625
▁bala	-11.7626
than	-11.7627
anti	-11.7628
▁joss	-11.7629
▁burrow	-11.7629
▁lett	-11.7631
▁hospitals	-11.7631
pf	-11.7632
▁redirect	-11.7633
rino	-11.7636
▁undis	-11.7636
▁riverside	-11.7639
children	-11.7639
essa	-11.764
▁soy	-11.7641
▁clinic	-11.7642
bby	-11.7643
▁fut	-11.7647
▁manuscripts	-11.7648
▁options	-11.765
▁schuma	-11.7653
▁wise	-11.7656
▁makers	-11.7659
▁congregation	-11.7659
toshi	-11.766
▁tha	-11.7662
▁orphan	-11.7664
uit	-11.7664
▁brahms	-11.7665
▁dissolut	-11.7665
▁dynasties	-11.7665
▁entrepreneur	-11.7665
▁equilibri	-11.7665
▁linspire	-11.7665
▁sullivan	-11.7665
▁zagreb	-11.7665
▁zimbabwe	-11.7665
▁intestine	-11.7665
▁disguis	-11.7665
▁prodig	-11.7665
▁entries	-11.7665
▁subculture	-11.7665
▁shogunate	-11.7665
▁faint	-11.7666
▁bandwidth	-11.7666
▁plaut	-11.7666
▁sponsorship	-11.7666
▁baghda	-11.7666
▁rhea	-11.7667
▁reichstag	-11.7667
▁giza	-11.7668
▁consultant	-11.7668
▁handball	-11.7668
▁dump	-11.7669
▁sag	-11.7671
▁unification	-11.7671
▁pioneers	-11.7671
▁broom	-11.7672
▁coordinate	-11.7673
▁schw	-11.7673
▁1796	-11.7673
▁mound	-11.7675
▁emitt	-11.7677
▁alarm	-11.7678
▁stre	-11.7679
▁oliveir	-11.7679
▁matur	-11.768
oper	-11.7682
▁calculate	-11.7687
▁ease	-11.7687
has	-11.7689
▁estonian	-11.769
▁straits	-11.769
▁guan	-11.7694
▁ceas	-11.7694
▁ska	-11.7695
▁viral	-11.7698
▁magma	-11.77
▁cz	-11.77
orum	-11.7702
▁dynamics	-11.7705
lap	-11.7705
tham	-11.7708
▁pill	-11.7712
gren	-11.7715
agua	-11.772
▁bsd	-11.772
▁thay	-11.7721
▁str	-11.7721
▁periodical	-11.7729
▁tuna	-11.7731
▁clusters	-11.7734
▁tyre	-11.7734
piece	-11.7734
▁retro	-11.7734
▁stretche	-11.7735
▁mortal	-11.7738
pac	-11.7738
player	-11.7739
emia	-11.7739
▁directory	-11.7741
▁tetra	-11.7742
▁linguist	-11.7743
▁loves	-11.7746
nheim	-11.7753
▁variables	-11.7754
▁loans	-11.7754
▁persist	-11.7757
▁excess	-11.7758
▁albatross	-11.7759
▁anticipat	-11.7759
▁communism	-11.7759
▁squirrel	-11.7759
▁ladakh	-11.7759
▁excellenc	-11.7759
▁rfc	-11.7759
▁edwin	-11.776
▁cardiff	-11.776
▁afford	-11.776
▁worcestershire	-11.776
▁vacation	-11.776
▁scarlet	-11.776
▁pillar	-11.7761
▁adaptive	-11.7764
▁saintdenis	-11.7764
generation	-11.7769
▁1772	-11.7769
▁faso	-11.7771
▁intervals	-11.7771
▁reporting	-11.7771
▁dip	-11.7772
▁boer	-11.7773
▁stability	-11.7773
▁laurent	-11.7775
bad	-11.7776
▁developments	-11.7776
gul	-11.7777
▁groen	-11.778
▁isotopes	-11.7783
▁iberian	-11.7784
powered	-11.7787
▁muse	-11.779
▁bail	-11.7794
▁chips	-11.7795
▁01	-11.7796
▁rosso	-11.7798
▁thur	-11.78
▁lawn	-11.78
▁chick	-11.7801
▁emilia	-11.7803
eaux	-11.7805
▁mora	-11.7806
▁differentiat	-11.7806
▁presum	-11.7808
▁newport	-11.7813
▁harper	-11.7813
tig	-11.7814
▁bypass	-11.7814
▁wage	-11.7815
litz	-11.7815
▁kata	-11.7816
▁cuts	-11.7821
▁modes	-11.7822
▁copa	-11.7825
ofia	-11.7826
▁elector	-11.7828
▁vie	-11.7829
▁franconia	-11.7833
▁117	-11.7836
iber	-11.7837
mul	-11.784
▁1808	-11.7841
▁hank	-11.7841
mari	-11.7842
tsingh	-11.7848
kha	-11.7849
earth	-11.785
▁selfgovern	-11.7852
▁bolshevik	-11.7854
▁charizard	-11.7854
▁seymour	-11.7854
▁pistol	-11.7854
▁chronology	-11.7854
▁flexible	-11.7854
▁frozen	-11.7854
▁madras	-11.7854
▁murree	-11.7855
▁analyz	-11.7855
▁silence	-11.7855
▁metropolis	-11.7855
▁watershed	-11.7855
▁palestin	-11.7855
▁byrne	-11.7856
▁naomi	-11.7856
eslie	-11.7856
▁granite	-11.7856
▁ghana	-11.7857
▁solvent	-11.7857
▁kush	-11.7857
▁recital	-11.7859
ional	-11.786
▁pursu	-11.786
▁behave	-11.7863
▁1779	-11.7864
▁1793	-11.7866
▁1823	-11.7866
ydon	-11.7866
▁machinery	-11.7868
▁aleksandr	-11.7868
▁eng	-11.7868
▁preceded	-11.7868
▁isles	-11.7868
▁saturat	-11.7869
▁blur	-11.7873
▁goats	-11.7875
▁jeanne	-11.7877
▁qatar	-11.788
walk	-11.7882
▁keeps	-11.7883
▁kre	-11.7884
aine	-11.7884
▁bowie	-11.7888
▁leigh	-11.7888
▁marda	-11.7889
▁zx	-11.7889
▁valer	-11.7898
▁commercials	-11.7899
▁glaciers	-11.7899
▁roh	-11.7901
▁messi	-11.7904
ude	-11.7907
▁pets	-11.7909
ubi	-11.791
▁foul	-11.7913
▁attach	-11.7916
▁frequenc	-11.7918
script	-11.7922
▁olympia	-11.7923
church	-11.7925
▁exiled	-11.7929
00000	-11.7929
▁stag	-11.793
▁hag	-11.7931
▁kau	-11.7941
▁coaster	-11.7941
▁babylon	-11.7944
▁joo	-11.7948
▁hectares	-11.795
▁platypus	-11.795
▁pleasant	-11.795
▁sophie	-11.795
▁tahiti	-11.795
▁wessex	-11.795
▁possum	-11.795
▁mccarthy	-11.795
▁gent	-11.7951
mmel	-11.7952
▁camden	-11.7953
▁grams	-11.7955
▁equipp	-11.7955
▁cle	-11.7956
▁cobb	-11.7956
▁pedal	-11.7957
▁kb	-11.7957
▁pam	-11.7958
▁germanspeak	-11.7959
▁filmmaker	-11.7959
▁jonas	-11.7959
▁italic	-11.796
▁almond	-11.7961
ebe	-11.7963
ography	-11.7963
ult	-11.7967
alis	-11.7969
kok	-11.7969
▁submitt	-11.797
▁hue	-11.7971
▁gym	-11.7971
▁hostage	-11.7973
berra	-11.7976
▁sixteenth	-11.7981
▁litre	-11.7982
▁lighting	-11.7982
vision	-11.7983
▁horde	-11.7983
▁juda	-11.7985
▁noel	-11.7985
▁robber	-11.7985
▁civilizations	-11.799
▁eruptions	-11.7991
auge	-11.7991
▁rolls	-11.7992
▁trainer	-11.7992
lach	-11.7994
nov	-11.7996
▁simone	-11.7997
▁mold	-11.7999
ican	-11.8002
▁slav	-11.8004
stad	-11.8004
bill	-11.8005
▁gim	-11.8006
▁facilitate	-11.8009
▁vega	-11.801
▁rm	-11.8011
poli	-11.8015
ground	-11.8015
▁packag	-11.8019
bot	-11.8021
▁cay	-11.803
▁pg	-11.803
▁solely	-11.8032
rdoba	-11.8033
▁rut	-11.8034
▁starch	-11.8035
kow	-11.8037
▁hog	-11.8038
ondo	-11.8042
kit	-11.8045
▁nap	-11.8045
ckett	-11.8046
▁uncertain	-11.8047
▁captivity	-11.8047
▁extraordinar	-11.8047
▁sicilian	-11.8047
▁villeneuve	-11.8047
▁sausage	-11.8047
▁illuminat	-11.8047
▁sutton	-11.8047
▁subtract	-11.8047
▁cigarette	-11.8048
▁kimono	-11.8048
▁closure	-11.8048
▁masterpiece	-11.8048
▁sioux	-11.8048
▁helmut	-11.8048
▁spray	-11.8048
▁foothill	-11.8049
▁cedar	-11.8051
▁albedo	-11.8051
▁mikoto	-11.8052
▁planck	-11.8052
rtha	-11.8053
▁como	-11.8053
▁realistic	-11.8054
▁marquess	-11.8054
rax	-11.8055
▁ell	-11.8057
▁titans	-11.8057
erevan	-11.8059
▁midway	-11.806
▁nagar	-11.8063
iformes	-11.8067
fac	-11.8068
▁feli	-11.8068
lech	-11.807
▁wade	-11.8072
▁diana	-11.8076
▁translator	-11.808
▁pools	-11.8081
▁fri	-11.8086
kawa	-11.8088
tude	-11.8088
fat	-11.8088
▁anno	-11.8093
▁socialism	-11.8095
zone	-11.8099
▁1780	-11.8106
▁resolv	-11.8108
▁albe	-11.811
champ	-11.8113
nce	-11.8116
▁cartoons	-11.8117
▁aguil	-11.8126
▁mob	-11.813
pm	-11.8131
▁fins	-11.8136
▁excel	-11.8139
bid	-11.8141
▁transliterat	-11.8142
▁vortex	-11.8145
▁zeppelin	-11.8145
▁seismic	-11.8145
▁notorious	-11.8145
▁nocturna	-11.8146
▁octave	-11.8146
▁radcliffe	-11.8146
rren	-11.8146
▁culinar	-11.8146
▁coloniz	-11.8146
▁irrigation	-11.8146
▁twentyfour	-11.8146
▁kaiser	-11.8147
▁geologist	-11.8147
▁bernstein	-11.8147
▁funny	-11.8148
▁orientation	-11.8149
▁eligib	-11.8149
ipus	-11.8149
▁crete	-11.8149
▁ret	-11.8151
▁nikolai	-11.8152
ledge	-11.8152
▁drought	-11.8153
▁assumption	-11.8153
▁vaud	-11.8154
▁allmusic	-11.8154
▁ranger	-11.8155
▁comfort	-11.8161
▁bergen	-11.8162
▁karen	-11.8164
▁contexts	-11.8164
▁hound	-11.8165
roc	-11.8165
▁madam	-11.8166
brien	-11.8167
▁breton	-11.8168
▁alert	-11.8168
▁wilbur	-11.8178
▁volt	-11.8179
▁rodrig	-11.8183
▁flavi	-11.8189
wear	-11.8195
visible	-11.8195
▁angus	-11.8196
gold	-11.8201
▁dell	-11.8201
▁rie	-11.8204
roman	-11.8205
▁headline	-11.8215
▁serb	-11.8219
system	-11.8219
▁isotope	-11.8219
▁thermodynamic	-11.822
acheron	-11.8221
▁chap	-11.8221
▁damp	-11.8222
▁dodgers	-11.8224
▁stat	-11.8226
chewa	-11.8228
pierre	-11.823
▁hur	-11.8233
▁turtles	-11.8234
6000	-11.8235
▁sanct	-11.8238
▁1.7	-11.8238
▁symphoni	-11.8239
▁mating	-11.824
▁0.8	-11.8244
▁sant	-11.8244
▁blizzard	-11.8244
▁html	-11.8244
▁potoroo	-11.8244
▁tertiary	-11.8244
▁transylvania	-11.8244
▁vezina	-11.8244
▁intervention	-11.8244
▁archaic	-11.8245
▁tribune	-11.8245
▁casualties	-11.8245
▁firefly	-11.8245
▁meiosis	-11.8245
▁0.9	-11.8245
▁inflation	-11.8245
▁reproductive	-11.8245
▁wilde	-11.8246
▁dylan	-11.8246
▁parrot	-11.8246
▁soloist	-11.8246
▁accent	-11.8246
▁skepticism	-11.8246
▁400000	-11.8246
▁impressive	-11.8246
▁vowel	-11.8247
▁authentic	-11.8248
▁gcm	-11.8249
▁goose	-11.8249
▁prem	-11.8255
▁denomination	-11.8256
▁convent	-11.8256
▁divers	-11.8259
pie	-11.8261
▁dildo	-11.8261
▁leto	-11.8262
▁infinit	-11.8263
dium	-11.8264
▁compatib	-11.8264
▁dancers	-11.8265
zell	-11.8265
door	-11.8267
▁mie	-11.8272
▁bac	-11.8273
▁hbo	-11.8273
tium	-11.8274
▁cove	-11.8275
▁px	-11.8276
▁proportional	-11.8277
sworth	-11.8278
▁khar	-11.828
▁juventus	-11.828
nchez	-11.8281
cri	-11.8281
▁coe	-11.8288
▁coaches	-11.8288
▁viol	-11.8292
▁hon	-11.8293
▁barton	-11.8294
pass	-11.8299
▁bmi	-11.8302
string	-11.8302
▁ope	-11.8302
▁kni	-11.8307
▁riders	-11.8308
▁disciples	-11.831
▁hum	-11.8323
▁drops	-11.8325
▁dirt	-11.8327
nza	-11.8328
wrote	-11.8337
▁shoe	-11.8338
onnie	-11.8338
▁xin	-11.8342
▁rue	-11.8343
▁addiction	-11.8344
▁additive	-11.8344
▁glucose	-11.8344
▁peruvian	-11.8344
▁pomerania	-11.8344
▁sapiens	-11.8344
▁welfare	-11.8344
▁berkshire	-11.8344
▁ahmed	-11.8345
▁obsid	-11.8345
▁jasper	-11.8345
▁axiom	-11.8345
▁santander	-11.8345
▁homosexual	-11.8345
▁witchcraft	-11.8345
▁multiplayer	-11.8345
▁berber	-11.8347
isa	-11.8347
▁surge	-11.8347
▁dru	-11.8349
▁semitone	-11.835
▁mentor	-11.8351
▁sunny	-11.8353
▁amend	-11.8357
▁ruben	-11.8361
▁interviews	-11.8361
▁stevenson	-11.8362
▁rang	-11.8362
▁cort	-11.8363
▁cyan	-11.8368
▁elbe	-11.8375
▁hera	-11.8375
▁enhanc	-11.8375
▁nc	-11.8377
▁aston	-11.8377
▁danielle	-11.8377
▁ariel	-11.8379
kovic	-11.838
aghan	-11.838
▁mariana	-11.8382
▁conf	-11.8386
▁lib	-11.8387
▁knowing	-11.839
▁notion	-11.8394
▁fog	-11.8394
▁wir	-11.8396
▁mist	-11.8397
▁hale	-11.8398
▁willie	-11.8405
▁tonight	-11.8406
▁iau	-11.8408
▁investigate	-11.8412
ttle	-11.8413
load	-11.8415
produc	-11.8416
▁bour	-11.8417
▁wanderer	-11.8417
▁tanks	-11.8423
▁shortest	-11.8424
abell	-11.8427
isco	-11.8428
▁cease	-11.8429
▁alessandr	-11.8434
▁rams	-11.8435
urance	-11.8439
▁seals	-11.8439
▁pall	-11.8439
▁goul	-11.8442
▁occult	-11.8443
▁humid	-11.8443
tai	-11.8444
▁ambulance	-11.8445
▁chlorine	-11.8445
▁epidemic	-11.8445
▁iodide	-11.8445
▁muppet	-11.8445
▁psychiatric	-11.8445
▁nagorno	-11.8445
▁nichols	-11.8445
▁monsoon	-11.8446
▁galaxie	-11.8446
▁bahawal	-11.8446
▁hannover	-11.8446
▁enlarge	-11.8446
▁breakthrough	-11.8446
▁pluck	-11.8446
▁alicia	-11.8447
▁anthropolog	-11.8447
▁thistle	-11.8447
▁coventry	-11.8447
▁bradford	-11.8448
▁ankle	-11.8448
▁bailey	-11.845
ssi	-11.845
▁wagon	-11.8451
▁1750	-11.8451
▁rhineland	-11.8452
▁confession	-11.8456
▁1764	-11.8456
lev	-11.8456
▁rodr	-11.8456
▁mlb	-11.8458
▁penal	-11.8458
▁linden	-11.8459
▁caracal	-11.846
▁guam	-11.8461
▁echo	-11.8465
▁bolt	-11.8467
▁yuan	-11.8467
▁booker	-11.8467
▁twinn	-11.8469
tropical	-11.8474
▁coil	-11.8476
▁tendenc	-11.848
▁capp	-11.8481
qi	-11.8484
▁upward	-11.8486
▁slot	-11.8486
▁colonist	-11.8487
quez	-11.8487
ulation	-11.8492
▁3.0	-11.85
▁piston	-11.8504
▁turin	-11.8505
char	-11.8509
▁pug	-11.8514
soft	-11.8517
eisenach	-11.8517
wen	-11.8519
mind	-11.852
▁5.5	-11.8521
▁corneli	-11.8522
rlington	-11.8522
simpson	-11.8522
▁sco	-11.8524
ulf	-11.8527
elps	-11.8528
▁koda	-11.8528
▁pauline	-11.8532
▁sketch	-11.8535
▁laud	-11.854
makura	-11.8542
engine	-11.8543
▁rau	-11.8543
escu	-11.8544
▁seg	-11.8547
▁barbirolli	-11.8547
▁hydrocarbon	-11.8547
▁revelation	-11.8547
▁superfamil	-11.8547
▁hermione	-11.8548
▁dramatist	-11.8548
▁scholastic	-11.8548
▁jeffrey	-11.8548
▁conceptual	-11.8548
▁mcgraw	-11.8548
▁zambia	-11.8548
▁proclamation	-11.8548
▁haifa	-11.8548
▁reverend	-11.8548
▁chromium	-11.8548
▁debris	-11.8548
▁stratford	-11.8549
▁admit	-11.8549
▁encode	-11.8549
▁uncommon	-11.8549
▁registration	-11.8549
▁summon	-11.8549
▁tundra	-11.855
▁visa	-11.855
▁chopin	-11.855
ija	-11.8551
▁stake	-11.8551
▁historie	-11.8551
▁keyboardist	-11.8552
▁elvis	-11.8552
▁airbus	-11.8553
▁footage	-11.8555
▁wiley	-11.8557
selling	-11.8558
▁1775	-11.8559
crea	-11.856
▁elm	-11.8563
▁samoa	-11.8564
▁berne	-11.8566
month	-11.857
▁hyun	-11.857
tour	-11.857
▁wol	-11.8572
▁tando	-11.8573
▁exclude	-11.8575
▁sparta	-11.8579
▁1660	-11.8582
iq	-11.8582
itic	-11.8584
rak	-11.8587
▁linkin	-11.8588
layer	-11.8589
zio	-11.8589
▁axel	-11.859
▁accomplished	-11.8592
▁rn	-11.8595
▁dramas	-11.8595
▁kama	-11.8596
▁adaptations	-11.8599
augh	-11.8599
cla	-11.86
▁chloro	-11.86
▁schwarz	-11.8602
▁integers	-11.8605
▁dye	-11.8609
▁mimic	-11.8612
▁2.2	-11.8616
▁myers	-11.8617
fan	-11.8618
▁resembl	-11.862
▁resistan	-11.862
▁porter	-11.8621
▁noah	-11.8621
▁boa	-11.8623
▁complain	-11.8626
▁lg	-11.8628
ishi	-11.8629
▁buttons	-11.8631
▁upgrade	-11.8632
▁dh	-11.8633
▁mania	-11.8634
▁jacque	-11.8635
corn	-11.8635
▁silesia	-11.8636
▁rin	-11.8637
▁burnt	-11.8639
▁integr	-11.8639
▁0.4	-11.8639
watch	-11.864
▁hydra	-11.864
▁confess	-11.8641
▁frontal	-11.8645
▁pronoun	-11.8648
fraid	-11.8648
▁aristotle	-11.8651
▁macintosh	-11.8651
▁rutherford	-11.8651
▁schleswig	-11.8651
▁taxonomic	-11.8651
▁tehran	-11.8651
▁geisha	-11.8651
▁prospect	-11.8651
▁micronesia	-11.8651
▁phantom	-11.8651
▁fergus	-11.8651
▁hammerfall	-11.8651
▁nymph	-11.8651
▁regulate	-11.8651
▁wreck	-11.8651
▁hammond	-11.8651
▁viktor	-11.8651
▁zoologist	-11.8651
▁gloucestershire	-11.8652
▁ecology	-11.8652
▁hunza	-11.8652
▁outcome	-11.8652
▁miracle	-11.8652
▁speculation	-11.8653
▁aberdeenshire	-11.8653
▁ligue	-11.8653
▁rpm	-11.8654
▁granddaughter	-11.8655
▁stack	-11.8657
▁rattle	-11.8657
▁ismail	-11.8657
▁logarithmic	-11.8658
▁frisian	-11.8659
▁vu	-11.8662
▁alcoholic	-11.8665
▁arn	-11.8667
▁zina	-11.8667
▁spacetime	-11.8672
▁miners	-11.8672
erz	-11.8672
▁olympian	-11.8674
▁cary	-11.8674
▁khali	-11.8675
▁portrayal	-11.8677
▁hassan	-11.8681
peake	-11.8682
garde	-11.8683
▁pau	-11.8683
▁patricia	-11.8683
▁taunt	-11.8684
▁dong	-11.8684
▁cav	-11.8684
grave	-11.8688
▁herbs	-11.8689
▁lily	-11.869
▁regulated	-11.8698
▁sui	-11.87
▁iraqi	-11.8701
ttingen	-11.8702
▁ural	-11.8702
▁float	-11.8705
▁charleston	-11.8705
▁tho	-11.8712
▁deities	-11.8714
marie	-11.8719
▁2.6	-11.8722
space	-11.8724
▁venues	-11.8725
iti	-11.8734
▁eccentric	-11.8736
▁gazette	-11.8741
▁acquire	-11.8743
▁saintmartin	-11.8744
▁spite	-11.8744
▁philippine	-11.8745
▁arteri	-11.8746
▁matsu	-11.8746
▁archives	-11.8748
▁bj	-11.875
▁spur	-11.8753
▁gloucester	-11.8754
▁03	-11.8754
▁alligator	-11.8755
▁bamboo	-11.8755
▁bayreuth	-11.8755
▁cabbage	-11.8755
▁dauphin	-11.8755
▁gradient	-11.8755
▁spectacular	-11.8755
▁toscanini	-11.8755
▁kurdish	-11.8755
▁archaeology	-11.8755
▁nectar	-11.8755
▁amazing	-11.8755
▁flint	-11.8755
▁loyalty	-11.8756
▁muri	-11.8756
▁offenbach	-11.8756
▁karma	-11.8756
▁enact	-11.8756
▁mystic	-11.8756
▁gymnastic	-11.8757
▁healing	-11.8757
▁humorous	-11.8757
▁tienne	-11.8758
▁clients	-11.8758
▁chapman	-11.8758
▁corruption	-11.876
▁crucial	-11.8761
▁cartoonist	-11.8761
▁attractive	-11.8761
▁intra	-11.8761
▁marathon	-11.8762
▁traction	-11.8764
▁chel	-11.8765
▁ration	-11.8769
▁specialty	-11.8769
▁owing	-11.8774
format	-11.8775
▁freeway	-11.8779
▁mustard	-11.8779
▁gord	-11.878
▁prototype	-11.8782
▁bacon	-11.8783
▁lips	-11.8783
▁quake	-11.8784
anning	-11.8785
▁oda	-11.8785
tsk	-11.8786
biase	-11.8793
▁oldham	-11.8794
▁rk	-11.8795
▁erd	-11.8796
dong	-11.8798
▁meyer	-11.8799
▁willis	-11.88
▁approache	-11.8803
escen	-11.8807
▁constantin	-11.8809
enthal	-11.881
▁sims	-11.8823
▁pile	-11.8829
wheel	-11.8833
1970	-11.8838
ductive	-11.884
▁signatures	-11.8841
▁nasal	-11.8841
evsk	-11.8842
▁sage	-11.8846
▁omar	-11.885
▁roche	-11.8851
▁bona	-11.8852
▁rectang	-11.8853
holstein	-11.8855
▁apostolic	-11.886
▁jealous	-11.886
▁metamorphic	-11.886
▁occurrence	-11.886
▁fantastic	-11.886
▁shropshire	-11.886
▁wak	-11.886
▁technological	-11.886
▁synod	-11.886
▁rama	-11.886
▁lithospher	-11.886
▁hiphop	-11.8861
▁earthsea	-11.8861
▁salvation	-11.8861
▁liveaction	-11.8862
▁zoology	-11.8862
▁messiah	-11.8863
hof	-11.8863
rath	-11.8863
▁amanda	-11.8864
igen	-11.8864
▁helmet	-11.8864
▁ivory	-11.8864
▁asturia	-11.8865
▁antler	-11.8865
▁boulogne	-11.8865
▁alexi	-11.8866
▁eurasian	-11.8866
▁lei	-11.8866
▁relay	-11.8868
▁carrot	-11.8868
▁assets	-11.887
▁usta	-11.8871
▁1783	-11.8871
▁ella	-11.8871
▁1763	-11.8871
▁151	-11.8872
▁sickle	-11.8873
▁baronet	-11.8873
▁belly	-11.8874
▁seaport	-11.8875
eni	-11.8876
stall	-11.8876
▁syl	-11.8877
▁dominate	-11.8878
▁fighters	-11.8878
zach	-11.8879
▁1786	-11.888
▁busy	-11.888
▁prevalen	-11.8881
hou	-11.8882
puted	-11.8884
olle	-11.8884
▁mao	-11.8884
▁mcca	-11.8885
▁jens	-11.8886
▁vow	-11.8886
▁realms	-11.8887
tze	-11.8889
ersen	-11.8889
▁gili	-11.889
▁operators	-11.8893
▁disneyland	-11.8897
▁levant	-11.8898
▁lease	-11.8901
▁spherical	-11.8902
▁regis	-11.8902
rated	-11.8903
span	-11.8905
▁duet	-11.8905
▁upset	-11.8907
▁marg	-11.8908
▁nails	-11.8908
▁2.4	-11.8908
▁zoe	-11.891
▁ves	-11.8911
▁swat	-11.8913
▁loaded	-11.8916
▁liberat	-11.8919
▁phrases	-11.8926
▁nw	-11.8928
third	-11.893
▁munro	-11.893
gat	-11.893
▁temp	-11.8931
gro	-11.8932
▁hayes	-11.8933
▁80000	-11.8938
▁pow	-11.8938
▁lego	-11.894
▁casting	-11.8941
screen	-11.8941
▁190	-11.8944
▁helm	-11.8947
▁seize	-11.8952
rez	-11.8953
▁mps	-11.8955
nzo	-11.8956
▁heather	-11.8958
▁vagina	-11.896
▁lange	-11.896
▁mack	-11.8961
▁demographics	-11.8961
▁3166	-11.8962
omys	-11.8963
▁militia	-11.8966
▁accommodate	-11.8966
▁amritsar	-11.8966
▁categoriz	-11.8966
▁cohost	-11.8966
▁feistel	-11.8966
▁parachute	-11.8966
▁armistice	-11.8966
▁stamford	-11.8966
▁dungeon	-11.8966
▁disabled	-11.8966
▁recycl	-11.8966
▁feminin	-11.8967
▁tikal	-11.8967
▁joshua	-11.8967
▁laos	-11.8968
▁slug	-11.8968
▁drainage	-11.8969
▁buc	-11.8969
▁pbs	-11.8971
▁monmouth	-11.8972
▁capcom	-11.8972
▁scorer	-11.8973
▁chesa	-11.8973
▁grassland	-11.8974
▁protective	-11.8974
▁acceptance	-11.8977
▁stealing	-11.8978
▁immortal	-11.8979
▁shige	-11.8979
▁align	-11.8979
▁pollen	-11.898
▁ahl	-11.8981
▁imam	-11.8981
▁ida	-11.8984
▁nobleman	-11.8987
▁dorian	-11.8987
▁brock	-11.899
▁drill	-11.8994
▁medalist	-11.8994
▁dew	-11.8997
▁agreements	-11.9001
ih	-11.9001
acuse	-11.9002
arnock	-11.9004
▁cosmo	-11.9004
▁pegg	-11.9007
mael	-11.9008
mere	-11.9009
▁mcg	-11.901
▁corpse	-11.901
▁emerg	-11.9012
lj	-11.9012
teen	-11.9013
ych	-11.9015
titude	-11.9016
▁sentences	-11.9018
rial	-11.9019
▁canons	-11.9019
▁1300	-11.902
▁tem	-11.9021
sex	-11.9027
dicated	-11.9034
▁aesch	-11.9039
▁supposedly	-11.9045
▁miso	-11.9045
▁underside	-11.9046
chang	-11.9049
gau	-11.905
▁skate	-11.9051
gara	-11.9054
▁sandra	-11.9054
jet	-11.9056
standing	-11.9057
▁balkan	-11.9059
▁peanuts	-11.9059
▁penetrat	-11.907
▁cavalier	-11.9074
▁domenico	-11.9074
▁huxley	-11.9074
▁laboratories	-11.9074
▁maximilian	-11.9074
▁paralympic	-11.9074
▁poseidon	-11.9074
▁saxeweimar	-11.9074
▁amusement	-11.9074
▁bounty	-11.9074
▁toulouse	-11.9074
▁imaging	-11.9074
▁saddle	-11.9074
▁riaa	-11.9075
▁assessment	-11.9075
▁reeve	-11.9075
▁bowser	-11.9076
▁tutor	-11.9077
▁spiny	-11.9078
▁basket	-11.9078
sehra	-11.9081
only	-11.9083
▁diemen	-11.9085
▁rains	-11.9086
▁hayne	-11.9086
▁nim	-11.9087
▁coleman	-11.9087
▁electrode	-11.9088
▁execut	-11.9089
▁tina	-11.9089
▁1603	-11.909
▁stimulat	-11.9091
▁tasman	-11.9091
▁tusk	-11.9096
anca	-11.9099
▁cia	-11.9099
▁selena	-11.9099
▁num	-11.9101
then	-11.9105
kken	-11.9109
eptic	-11.911
▁saba	-11.9111
▁carmel	-11.9123
qualities	-11.9127
▁synthesiz	-11.9127
▁mobil	-11.9129
▁acre	-11.913
▁guided	-11.9131
▁jacket	-11.9133
irut	-11.9134
▁screaming	-11.9135
▁chim	-11.9139
▁pha	-11.9141
▁hartman	-11.9148
▁1685	-11.9148
▁penta	-11.9149
▁wen	-11.915
▁sidd	-11.9151
▁guidelines	-11.9155
anhalt	-11.9157
▁175	-11.9159
▁invite	-11.9161
▁igne	-11.9164
▁babe	-11.9165
stellar	-11.9165
▁rankings	-11.9166
ope	-11.9167
▁ripe	-11.9169
▁sds	-11.9171
▁toad	-11.9172
▁prom	-11.9173
lein	-11.9175
▁complement	-11.9178
enko	-11.918
▁ancestral	-11.9183
▁conjecture	-11.9183
▁eisenhower	-11.9183
▁falkland	-11.9183
▁microprocessor	-11.9183
▁molotov	-11.9183
▁mozambi	-11.9183
▁pedestrian	-11.9183
▁steadily	-11.9183
▁vilnius	-11.9183
▁whisenhunt	-11.9183
▁gondwana	-11.9183
▁chinnamal	-11.9183
▁automotive	-11.9183
▁cherubin	-11.9183
▁anjou	-11.9183
▁tuning	-11.9183
▁urawa	-11.9183
▁lawsuit	-11.9183
▁rommel	-11.9183
▁berwickshire	-11.9184
▁carlisle	-11.9184
▁dorset	-11.9184
▁oratorio	-11.9184
▁fortification	-11.9184
▁consortium	-11.9184
▁sheikh	-11.9184
ofyear	-11.9185
▁synonymous	-11.9185
▁bronx	-11.9185
▁vaugh	-11.9186
▁fiji	-11.9186
▁remind	-11.9186
▁pouch	-11.9186
▁famine	-11.9188
▁vault	-11.9188
▁rotor	-11.9189
▁caves	-11.919
fran	-11.9191
▁1768	-11.9194
▁preach	-11.9196
▁elk	-11.9196
▁lecturer	-11.9197
▁quaker	-11.9198
▁steelers	-11.9199
▁sig	-11.92
kind	-11.92
▁ursul	-11.92
▁petrol	-11.9201
▁dahl	-11.9203
kaya	-11.9204
▁121	-11.9206
▁populationof	-11.9206
mag	-11.9207
▁ichi	-11.9208
▁kala	-11.9208
▁jen	-11.921
▁orthograph	-11.921
▁aude	-11.9212
▁constan	-11.9213
▁discharge	-11.9214
▁loch	-11.9214
▁digging	-11.9217
iyya	-11.9217
▁mash	-11.9218
asaki	-11.9219
▁banking	-11.9219
▁esp	-11.9219
▁mig	-11.922
▁moistur	-11.9224
gou	-11.9224
eiji	-11.9226
▁collar	-11.923
▁innovati	-11.9231
▁noodles	-11.9232
▁00	-11.9234
ndez	-11.9235
▁cai	-11.9238
▁customer	-11.924
owitz	-11.9242
dha	-11.9244
▁pent	-11.9244
▁mull	-11.9245
▁eid	-11.9248
▁buxt	-11.9248
mania	-11.9249
▁incorporat	-11.9251
▁ev	-11.9253
▁daw	-11.9254
lr	-11.9254
1839	-11.9254
▁sec	-11.9255
▁gat	-11.9255
▁lean	-11.9266
▁tonne	-11.9268
▁chung	-11.9269
▁entertain	-11.927
▁geologic	-11.9272
▁brady	-11.9284
▁uri	-11.9286
▁saintpierre	-11.9287
▁thou	-11.9292
▁baldheri	-11.9293
▁chimpanzee	-11.9293
▁cucumber	-11.9293
▁nominee	-11.9293
▁psychedelic	-11.9293
▁spielberg	-11.9293
▁landslide	-11.9293
▁reunion	-11.9293
▁tattoo	-11.9293
▁bafta	-11.9293
▁posse	-11.9293
▁utility	-11.9293
▁vassal	-11.9293
▁buddy	-11.9293
▁uncertainty	-11.9293
▁sidney	-11.9293
▁banknote	-11.9294
▁coptic	-11.9294
▁barack	-11.9294
▁covent	-11.9295
nnie	-11.9295
▁selective	-11.9296
▁editorial	-11.9296
▁fails	-11.9296
▁tracy	-11.9296
kal	-11.9296
▁noaa	-11.9296
asian	-11.9297
▁everybody	-11.9297
▁elgar	-11.9299
▁fail	-11.93
▁greet	-11.9302
▁wiener	-11.9302
▁differently	-11.9303
punk	-11.9303
nthrop	-11.9305
lof	-11.9305
▁mbe	-11.9309
▁sticks	-11.9309
▁mathematicians	-11.9311
▁investor	-11.9311
tidae	-11.9312
hz	-11.9313
▁interchangeabl	-11.932
▁excit	-11.9323
odor	-11.9324
▁hydrochlori	-11.9327
▁standardiz	-11.9329
▁candid	-11.9331
▁1066	-11.9332
▁tablets	-11.9333
▁constructors	-11.9333
▁arti	-11.9334
▁moody	-11.9338
▁scream	-11.9342
▁rally	-11.9342
▁marath	-11.9353
▁erie	-11.9354
▁ipa	-11.9356
chau	-11.9358
▁144	-11.936
bbc	-11.936
▁tano	-11.936
▁lyric	-11.9361
▁jol	-11.9363
▁rye	-11.9368
▁ascen	-11.9368
fected	-11.9372
▁migrat	-11.9373
vell	-11.9375
▁compose	-11.9376
columbia	-11.9378
heavy	-11.9378
▁kami	-11.9381
1987	-11.9382
normal	-11.9383
▁vhs	-11.9387
▁atp	-11.9391
▁hindus	-11.9395
por	-11.9397
▁comfortabl	-11.9397
werk	-11.94
▁caffeine	-11.9404
▁giorgio	-11.9404
▁jhelum	-11.9404
▁livorno	-11.9404
▁proponent	-11.9404
▁triangular	-11.9404
▁pixel	-11.9404
▁viscount	-11.9404
▁internazionale	-11.9404
▁encyclopaedia	-11.9404
▁rpg	-11.9404
▁modify	-11.9404
▁moldova	-11.9404
▁encoding	-11.9404
▁laptop	-11.9405
▁pollution	-11.9405
▁punctuation	-11.9405
▁cardiac	-11.9405
▁prospero	-11.9405
▁teatro	-11.9405
▁belize	-11.9405
▁aerial	-11.9407
▁humidity	-11.9407
▁thickness	-11.9409
▁chords	-11.9409
▁gallag	-11.9411
▁sponsors	-11.9412
▁wetland	-11.9412
▁prophecy	-11.9414
▁poster	-11.9416
meg	-11.9418
▁dvds	-11.9419
▁shower	-11.942
▁napoleonic	-11.942
▁educator	-11.942
▁kilm	-11.942
▁flavors	-11.9422
▁60000	-11.9422
▁opel	-11.9422
shell	-11.9423
▁resin	-11.9424
▁neuron	-11.9426
▁scouts	-11.9432
logy	-11.9432
▁burme	-11.9432
▁tatar	-11.9434
▁conception	-11.9435
show	-11.9437
▁lam	-11.9441
▁franch	-11.9443
▁brewer	-11.9443
fayette	-11.9445
▁xl	-11.9447
namur	-11.9448
▁parkes	-11.9449
▁betting	-11.9449
▁pose	-11.945
hydr	-11.9452
▁planes	-11.9452
▁108	-11.9454
▁zar	-11.9458
▁zw	-11.946
stick	-11.9462
▁acknowledg	-11.9464
▁lore	-11.9464
▁islanders	-11.9464
asso	-11.9465
▁banker	-11.9465
▁obi	-11.9466
▁myths	-11.9467
trip	-11.9467
▁lus	-11.9471
wark	-11.9473
▁mort	-11.9476
nais	-11.9476
▁plott	-11.9478
▁valentine	-11.9478
bok	-11.9483
▁hobb	-11.9485
oso	-11.9486
▁tails	-11.949
▁tara	-11.9491
summer	-11.9493
2010	-11.9495
▁rabbits	-11.9495
▁stripe	-11.9496
aternal	-11.9498
tine	-11.95
▁scandinavia	-11.9501
▁contra	-11.9507
▁radian	-11.9509
bart	-11.951
▁solids	-11.9512
▁deeply	-11.9513
▁frederic	-11.9513
▁consonants	-11.9513
tree	-11.9514
▁vertebra	-11.9514
▁umbrella	-11.9516
▁chihuahua	-11.9516
▁griffith	-11.9516
▁mackenzie	-11.9516
▁presbyterian	-11.9516
▁sanctuary	-11.9516
▁semiconductor	-11.9516
▁supremac	-11.9516
▁chiapas	-11.9516
▁katherine	-11.9516
▁nicaea	-11.9516
▁propagat	-11.9516
▁niece	-11.9516
▁fedora	-11.9516
▁aristocrat	-11.9516
▁lodge	-11.9517
▁catalogue	-11.9517
▁intact	-11.9517
[...]
